
#ifdef __has_attribute
#define HAVE_ATTRIBUTE(x) __has_attribute(x)
#else
#define HAVE_ATTRIBUTE(x) 0
#endif
#if HAVE_ATTRIBUTE(aligned) || (defined(__GNUC__) && !defined(__clang__))
#define DATA_ALIGN_ATTRIBUTE __attribute__((aligned(4)))
#else
#define DATA_ALIGN_ATTRIBUTE
#endif

const unsigned char tinymlgen_model[] DATA_ALIGN_ATTRIBUTE = {0x1c, 0x00, 0x00, 0x00, 0x54, 0x46, 0x4c, 0x33, 0x14, 0x00, 0x20, 0x00, 0x04, 0x00, 0x08, 0x00, 0x0c, 0x00, 0x10, 0x00, 0x14, 0x00, 0x00, 0x00, 0x18, 0x00, 0x1c, 0x00, 0x14, 0x00, 0x00, 0x00, 0x03, 0x00, 0x00, 0x00, 0x18, 0x00, 0x00, 0x00, 0x20, 0x00, 0x00, 0x00, 0xb0, 0x00, 0x00, 0x00, 0x20, 0x00, 0x00, 0x00, 0x58, 0x00, 0x00, 0x00, 0x50, 0x00, 0x00, 0x00, 0x02, 0x00, 0x00, 0x00, 0x8c, 0x03, 0x00, 0x00, 0x70, 0x01, 0x00, 0x00, 0x01, 0x00, 0x00, 0x00, 0xb4, 0x00, 0x00, 0x00, 0x0d, 0x00, 0x00, 0x00, 0x9c, 0x09, 0x00, 0x00, 0x98, 0x09, 0x00, 0x00, 0xb8, 0x08, 0x00, 0x00, 0x1c, 0x08, 0x00, 0x00, 0x8c, 0x07, 0x00, 0x00, 0x9c, 0x06, 0x00, 0x00, 0xb8, 0x04, 0x00, 0x00, 0xec, 0x03, 0x00, 0x00, 0x7c, 0x09, 0x00, 0x00, 0x78, 0x09, 0x00, 0x00, 0x74, 0x09, 0x00, 0x00, 0x70, 0x09, 0x00, 0x00, 0x3c, 0x00, 0x00, 0x00, 0x00, 0x00, 0x00, 0x00, 0x01, 0x00, 0x00, 0x00, 0x0c, 0x00, 0x00, 0x00, 0x08, 0x00, 0x0c, 0x00, 0x04, 0x00, 0x08, 0x00, 0x08, 0x00, 0x00, 0x00, 0x08, 0x00, 0x00, 0x00, 0x0c, 0x00, 0x00, 0x00, 0x13, 0x00, 0x00, 0x00, 0x6d, 0x69, 0x6e, 0x5f, 0x72, 0x75, 0x6e, 0x74, 0x69, 0x6d, 0x65, 0x5f, 0x76, 0x65, 0x72, 0x73, 0x69, 0x6f, 0x6e, 0x00, 0xb2, 0xf7, 0xff, 0xff, 0x04, 0x00, 0x00, 0x00, 0x10, 0x00, 0x00, 0x00, 0x31, 0x2e, 0x35, 0x2e, 0x30, 0x00, 0x00, 0x00, 0x00, 0x00, 0x00, 0x00, 0x00, 0x00, 0x00, 0x00, 0x0f, 0x00, 0x00, 0x00, 0x4d, 0x4c, 0x49, 0x52, 0x20, 0x43, 0x6f, 0x6e, 0x76, 0x65, 0x72, 0x74, 0x65, 0x64, 0x2e, 0x00, 0x00, 0x00, 0x0e, 0x00, 0x18, 0x00, 0x04, 0x00, 0x08, 0x00, 0x0c, 0x00, 0x10, 0x00, 0x14, 0x00, 0x0e, 0x00, 0x00, 0x00, 0x14, 0x00, 0x00, 0x00, 0x40, 0x00, 0x00, 0x00, 0x44, 0x00, 0x00, 0x00, 0x48, 0x00, 0x00, 0x00, 0x58, 0x00, 0x00, 0x00, 0x0b, 0x00, 0x00, 0x00, 0x8c, 0x08, 0x00, 0x00, 0x1c, 0x08, 0x00, 0x00, 0x8c, 0x07, 0x00, 0x00, 0xfc, 0x06, 0x00, 0x00, 0x84, 0x06, 0x00, 0x00, 0x90, 0x05, 0x00, 0x00, 0xac, 0x03, 0x00, 0x00, 0xa4, 0x02, 0x00, 0x00, 0xb0, 0x01, 0x00, 0x00, 0xf8, 0x00, 0x00, 0x00, 0x80, 0x00, 0x00, 0x00, 0x01, 0x00, 0x00, 0x00, 0x00, 0x00, 0x00, 0x00, 0x01, 0x00, 0x00, 0x00, 0x0a, 0x00, 0x00, 0x00, 0x04, 0x00, 0x00, 0x00, 0x28, 0x02, 0x00, 0x00, 0x58, 0x01, 0x00, 0x00, 0xa4, 0x00, 0x00, 0x00, 0x1c, 0x00, 0x00, 0x00, 0x04, 0x00, 0x00, 0x00, 0x6d, 0x61, 0x69, 0x6e, 0x00, 0x00, 0x0e, 0x00, 0x18, 0x00, 0x08, 0x00, 0x0c, 0x00, 0x10, 0x00, 0x07, 0x00, 0x14, 0x00, 0x0e, 0x00, 0x00, 0x00, 0x00, 0x00, 0x00, 0x09, 0x01, 0x00, 0x00, 0x00, 0x1c, 0x00, 0x00, 0x00, 0x10, 0x00, 0x00, 0x00, 0x04, 0x00, 0x00, 0x00, 0x8e, 0xf8, 0xff, 0xff, 0x00, 0x00, 0x80, 0x3f, 0x01, 0x00, 0x00, 0x00, 0x0a, 0x00, 0x00, 0x00, 0x01, 0x00, 0x00, 0x00, 0x09, 0x00, 0x00, 0x00, 0xf4, 0xfd, 0xff, 0xff, 0x19, 0x00, 0x00, 0x00, 0x00, 0x00, 0x00, 0x19, 0x01, 0x00, 0x00, 0x00, 0x30, 0xf8, 0xff, 0xff, 0x14, 0x00, 0x00, 0x00, 0x0b, 0x00, 0x00, 0x00, 0x24, 0x00, 0x00, 0x00, 0x30, 0x00, 0x00, 0x00, 0x10, 0x00, 0x00, 0x00, 0x02, 0x00, 0x00, 0x00, 0x01, 0x00, 0x00, 0x00, 0x03, 0x00, 0x00, 0x00, 0x02, 0x00, 0x00, 0x00, 0xff, 0xff, 0xff, 0xff, 0x03, 0x00, 0x00, 0x00, 0x08, 0x00, 0x00, 0x00, 0x49, 0x64, 0x65, 0x6e, 0x74, 0x69, 0x74, 0x79, 0x00, 0x00, 0x00, 0x00, 0x18, 0xf8, 0xff, 0xff, 0x5e, 0xff, 0xff, 0xff, 0x00, 0x00, 0x00, 0x08, 0x18, 0x00, 0x00, 0x00, 0x0c, 0x00, 0x00, 0x00, 0x04, 0x00, 0x00, 0x00, 0x30, 0xf8, 0xff, 0xff, 0x01, 0x00, 0x00, 0x00, 0x09, 0x00, 0x00, 0x00, 0x03, 0x00, 0x00, 0x00, 0x08, 0x00, 0x00, 0x00, 0x06, 0x00, 0x00, 0x00, 0x01, 0x00, 0x00, 0x00, 0xa4, 0xf8, 0xff, 0xff, 0x14, 0x00, 0x00, 0x00, 0x0a, 0x00, 0x00, 0x00, 0x24, 0x00, 0x00, 0x00, 0x5c, 0x00, 0x00, 0x00, 0x10, 0x00, 0x00, 0x00, 0x02, 0x00, 0x00, 0x00, 0x01, 0x00, 0x00, 0x00, 0x03, 0x00, 0x00, 0x00, 0x02, 0x00, 0x00, 0x00, 0xff, 0xff, 0xff, 0xff, 0x03, 0x00, 0x00, 0x00, 0x34, 0x00, 0x00, 0x00, 0x73, 0x65, 0x71, 0x75, 0x65, 0x6e, 0x74, 0x69, 0x61, 0x6c, 0x2f, 0x64, 0x65, 0x6e, 0x73, 0x65, 0x5f, 0x32, 0x2f, 0x4d, 0x61, 0x74, 0x4d, 0x75, 0x6c, 0x3b, 0x73, 0x65, 0x71, 0x75, 0x65, 0x6e, 0x74, 0x69, 0x61, 0x6c, 0x2f, 0x64, 0x65, 0x6e, 0x73, 0x65, 0x5f, 0x32, 0x2f, 0x42, 0x69, 0x61, 0x73, 0x41, 0x64, 0x64, 0x00, 0x00, 0x00, 0x00, 0xa0, 0xf9, 0xff, 0xff, 0x00, 0x00, 0x0e, 0x00, 0x14, 0x00, 0x00, 0x00, 0x08, 0x00, 0x0c, 0x00, 0x07, 0x00, 0x10, 0x00, 0x0e, 0x00, 0x00, 0x00, 0x00, 0x00, 0x00, 0x08, 0x1c, 0x00, 0x00, 0x00, 0x10, 0x00, 0x00, 0x00, 0x04, 0x00, 0x00, 0x00, 0x32, 0xff, 0xff, 0xff, 0x00, 0x00, 0x00, 0x01, 0x01, 0x00, 0x00, 0x00, 0x08, 0x00, 0x00, 0x00, 0x03, 0x00, 0x00, 0x00, 0x07, 0x00, 0x00, 0x00, 0x05, 0x00, 0x00, 0x00, 0x02, 0x00, 0x00, 0x00, 0x58, 0xf9, 0xff, 0xff, 0x14, 0x00, 0x00, 0x00, 0x09, 0x00, 0x00, 0x00, 0x24, 0x00, 0x00, 0x00, 0x74, 0x00, 0x00, 0x00, 0x10, 0x00, 0x00, 0x00, 0x02, 0x00, 0x00, 0x00, 0x01, 0x00, 0x00, 0x00, 0x0a, 0x00, 0x00, 0x00, 0x02, 0x00, 0x00, 0x00, 0xff, 0xff, 0xff, 0xff, 0x0a, 0x00, 0x00, 0x00, 0x4c, 0x00, 0x00, 0x00, 0x73, 0x65, 0x71, 0x75, 0x65, 0x6e, 0x74, 0x69, 0x61, 0x6c, 0x2f, 0x64, 0x65, 0x6e, 0x73, 0x65, 0x5f, 0x31, 0x2f, 0x4d, 0x61, 0x74, 0x4d, 0x75, 0x6c, 0x3b, 0x73, 0x65, 0x71, 0x75, 0x65, 0x6e, 0x74, 0x69, 0x61, 0x6c, 0x2f, 0x64, 0x65, 0x6e, 0x73, 0x65, 0x5f, 0x31, 0x2f, 0x52, 0x65, 0x6c, 0x75, 0x3b, 0x73, 0x65, 0x71, 0x75, 0x65, 0x6e, 0x74, 0x69, 0x61, 0x6c, 0x2f, 0x64, 0x65, 0x6e, 0x73, 0x65, 0x5f, 0x31, 0x2f, 0x42, 0x69, 0x61, 0x73, 0x41, 0x64, 0x64, 0x00, 0x00, 0x00, 0x00, 0x6c, 0xfa, 0xff, 0xff, 0x00, 0x00, 0x0e, 0x00, 0x16, 0x00, 0x00, 0x00, 0x08, 0x00, 0x0c, 0x00, 0x07, 0x00, 0x10, 0x00, 0x0e, 0x00, 0x00, 0x00, 0x00, 0x00, 0x00, 0x08, 0x24, 0x00, 0x00, 0x00, 0x18, 0x00, 0x00, 0x00, 0x0c, 0x00, 0x00, 0x00, 0x00, 0x00, 0x06, 0x00, 0x08, 0x00, 0x07, 0x00, 0x06, 0x00, 0x00, 0x00, 0x00, 0x00, 0x00, 0x01, 0x01, 0x00, 0x00, 0x00, 0x07, 0x00, 0x00, 0x00, 0x03, 0x00, 0x00, 0x00, 0x00, 0x00, 0x00, 0x00, 0x04, 0x00, 0x00, 0x00, 0x03, 0x00, 0x00, 0x00, 0x0c, 0x00, 0x10, 0x00, 0x0b, 0x00, 0x00, 0x00, 0x0c, 0x00, 0x04, 0x00, 0x0c, 0x00, 0x00, 0x00, 0x09, 0x00, 0x00, 0x00, 0x00, 0x00, 0x00, 0x09, 0x01, 0x00, 0x00, 0x00, 0x48, 0xfa, 0xff, 0xff, 0x14, 0x00, 0x00, 0x00, 0x08, 0x00, 0x00, 0x00, 0x24, 0x00, 0x00, 0x00, 0x6c, 0x00, 0x00, 0x00, 0x10, 0x00, 0x00, 0x00, 0x02, 0x00, 0x00, 0x00, 0x01, 0x00, 0x00, 0x00, 0x0a, 0x00, 0x00, 0x00, 0x02, 0x00, 0x00, 0x00, 0xff, 0xff, 0xff, 0xff, 0x0a, 0x00, 0x00, 0x00, 0x46, 0x00, 0x00, 0x00, 0x73, 0x65, 0x71, 0x75, 0x65, 0x6e, 0x74, 0x69, 0x61, 0x6c, 0x2f, 0x64, 0x65, 0x6e, 0x73, 0x65, 0x2f, 0x4d, 0x61, 0x74, 0x4d, 0x75, 0x6c, 0x3b, 0x73, 0x65, 0x71, 0x75, 0x65, 0x6e, 0x74, 0x69, 0x61, 0x6c, 0x2f, 0x64, 0x65, 0x6e, 0x73, 0x65, 0x2f, 0x52, 0x65, 0x6c, 0x75, 0x3b, 0x73, 0x65, 0x71, 0x75, 0x65, 0x6e, 0x74, 0x69, 0x61, 0x6c, 0x2f, 0x64, 0x65, 0x6e, 0x73, 0x65, 0x2f, 0x42, 0x69, 0x61, 0x73, 0x41, 0x64, 0x64, 0x00, 0x00, 0x6c, 0xfa, 0xff, 0xff, 0x4e, 0xfb, 0xff, 0xff, 0x04, 0x00, 0x00, 0x00, 0x78, 0x00, 0x00, 0x00, 0x9d, 0x9a, 0x05, 0xbf, 0xf0, 0x49, 0xf3, 0xbe, 0xef, 0x46, 0xec, 0x3d, 0xff, 0x70, 0xcc, 0xbe, 0x59, 0xe5, 0xc5, 0x3d, 0xd0, 0x60, 0x23, 0x3f, 0x73, 0x34, 0x4a, 0x3f, 0x94, 0x2d, 0x9b, 0xbe, 0xe9, 0x02, 0x75, 0xbf, 0x0a, 0xfe, 0x35, 0x3f, 0xc7, 0xfc, 0xa2, 0x3d, 0xde, 0x5a, 0x65, 0xbe, 0x97, 0x93, 0xd7, 0xbd, 0x9e, 0x63, 0x17, 0x3f, 0xb4, 0x9e, 0x98, 0x3d, 0xb6, 0xd1, 0xf2, 0xbe, 0xf0, 0x60, 0x48, 0xbf, 0x20, 0x41, 0x97, 0x3c, 0x37, 0x7b, 0x21, 0x3e, 0xc5, 0x89, 0x0e, 0x3f, 0xcd, 0x67, 0xa7, 0xbd, 0x24, 0x52, 0xdf, 0x3e, 0x14, 0xe7, 0xdc, 0x3e, 0xb1, 0x42, 0xd3, 0xbe, 0x1e, 0xb3, 0xf4, 0x3e, 0xc6, 0xa0, 0x04, 0x3f, 0x4e, 0xd1, 0x4a, 0xbf, 0x18, 0xa5, 0xaa, 0x3e, 0x23, 0xa7, 0x27, 0xbd, 0x9a, 0x6a, 0x1c, 0xbd, 0xb2, 0xfb, 0xff, 0xff, 0x10, 0x00, 0x00, 0x00, 0x07, 0x00, 0x00, 0x00, 0x14, 0x00, 0x00, 0x00, 0x30, 0x00, 0x00, 0x00, 0x02, 0x00, 0x00, 0x00, 0x03, 0x00, 0x00, 0x00, 0x0a, 0x00, 0x00, 0x00, 0x19, 0x00, 0x00, 0x00, 0x73, 0x65, 0x71, 0x75, 0x65, 0x6e, 0x74, 0x69, 0x61, 0x6c, 0x2f, 0x64, 0x65, 0x6e, 0x73, 0x65, 0x5f, 0x32, 0x2f, 0x4d, 0x61, 0x74, 0x4d, 0x75, 0x6c, 0x00, 0x00, 0x00, 0x34, 0xfb, 0xff, 0xff, 0x16, 0xfc, 0xff, 0xff, 0x04, 0x00, 0x00, 0x00, 0x90, 0x01, 0x00, 0x00, 0x2e, 0x13, 0x81, 0xbe, 0xc9, 0x94, 0xb5, 0x3e, 0x2c, 0x05, 0x32, 0xbc, 0xb8, 0x2e, 0x07, 0xbe, 0xfa, 0xb2, 0x09, 0xbe, 0xe8, 0xd6, 0xbb, 0x3d, 0xed, 0x1b, 0xc1, 0x3e, 0xf5, 0x52, 0x5c, 0x3e, 0xaf, 0x0e, 0xd8, 0xbd, 0xd0, 0x03, 0x1f, 0xbe, 0x54, 0x9a, 0xb1, 0x3e, 0x0c, 0xf2, 0x20, 0x3e, 0x00, 0xe5, 0x03, 0xbf, 0x28, 0x64, 0xd7, 0xbe, 0x00, 0xb8, 0x63, 0xba, 0x83, 0xae, 0xf4, 0xbe, 0x7a, 0xc2, 0xd8, 0xbe, 0x7e, 0xda, 0x08, 0x3f, 0x2a, 0x78, 0x8a, 0x3e, 0x8b, 0x8c, 0x99, 0xbe, 0x94, 0x83, 0xdc, 0x3e, 0xb1, 0xa6, 0x88, 0x3e, 0x64, 0x64, 0x8c, 0x3e, 0xc4, 0x0e, 0x5d, 0x3e, 0xd2, 0x2d, 0x75, 0xbe, 0x36, 0x29, 0x61, 0x3e, 0x56, 0xfe, 0x2a, 0x3e, 0x6a, 0xb3, 0xb0, 0xbe, 0x5a, 0x95, 0xc8, 0x3e, 0xfa, 0x50, 0xe7, 0x3e, 0xc5, 0x13, 0x02, 0xbf, 0x8a, 0x99, 0xd1, 0xbe, 0xe0, 0x6f, 0xf1, 0xbe, 0x20, 0x4f, 0xd0, 0x3e, 0xd0, 0x96, 0x60, 0xbe, 0x3c, 0x76, 0x68, 0x3e, 0x98, 0x7d, 0x9c, 0xbe, 0xf0, 0xf7, 0x53, 0xbe, 0x18, 0x09, 0xd3, 0x3e, 0xd2, 0xf1, 0xae, 0x3e, 0xe2, 0x37, 0x65, 0xbe, 0x5a, 0xc6, 0x71, 0x3d, 0x75, 0xa1, 0x28, 0x3e, 0xc0, 0x91, 0xe3, 0x3d, 0x52, 0x14, 0x32, 0xbe, 0xc0, 0xd4, 0xb4, 0x3e, 0xff, 0xc6, 0xef, 0xbc, 0x62, 0x0a, 0x93, 0x3e, 0xea, 0x4b, 0x98, 0xbe, 0xe4, 0x2b, 0x33, 0x3d, 0xd8, 0xa4, 0xc3, 0x3d, 0x84, 0x67, 0x09, 0xbf, 0x17, 0xe4, 0xa6, 0xbe, 0x3a, 0xf5, 0x0b, 0x3f, 0x7a, 0xb2, 0xe0, 0x3e, 0x00, 0x29, 0x02, 0xbd, 0xc0, 0xfc, 0xc4, 0xbe, 0xd2, 0x67, 0x92, 0x3e, 0xc8, 0x3c, 0x2d, 0x3e, 0x08, 0x7a, 0x8b, 0x3d, 0xbc, 0x95, 0x07, 0x3f, 0x15, 0xab, 0x1b, 0xbf, 0x6c, 0x7a, 0x18, 0x3e, 0xc0, 0x59, 0x83, 0x3c, 0x80, 0x06, 0xc4, 0xbb, 0x65, 0x0f, 0x9e, 0x3e, 0x25, 0x24, 0xd7, 0x3e, 0x30, 0x97, 0xea, 0x3c, 0x66, 0x07, 0xf5, 0xbe, 0x21, 0xe4, 0x3d, 0x3d, 0xda, 0x7f, 0x07, 0xbf, 0xe4, 0x5e, 0x93, 0x3e, 0x48, 0xb4, 0xc7, 0xbd, 0x6a, 0xba, 0xe7, 0xbe, 0x82, 0x75, 0xbc, 0x3e, 0x90, 0x09, 0x92, 0xbd, 0xfc, 0x08, 0x32, 0x3e, 0xb4, 0x63, 0xe8, 0xbd, 0xc8, 0x4c, 0x0b, 0x3f, 0x82, 0x3d, 0xd9, 0xbe, 0x00, 0x56, 0x2d, 0xbd, 0x48, 0xd0, 0x1c, 0x3f, 0xae, 0xc6, 0x0a, 0xbe, 0x10, 0x82, 0xa8, 0x3e, 0xe4, 0xbb, 0x01, 0x3f, 0x0a, 0x58, 0x0a, 0x3c, 0xdb, 0x94, 0x41, 0xbe, 0xfa, 0xc4, 0x16, 0x3f, 0x72, 0x29, 0xd3, 0xbd, 0xb6, 0xa0, 0x63, 0x3d, 0xc4, 0xaf, 0x15, 0x3e, 0xd7, 0xd9, 0x20, 0xbf, 0x2b, 0x86, 0x3a, 0xbe, 0xe4, 0xf8, 0x97, 0x3e, 0x98, 0x05, 0x58, 0x3e, 0x00, 0x56, 0x0f, 0x3c, 0x17, 0xee, 0x5a, 0x3e, 0x11, 0xc8, 0x9d, 0x3e, 0x06, 0x57, 0xfb, 0x3e, 0x26, 0x6b, 0x13, 0x3f, 0x92, 0xfd, 0xff, 0xff, 0x10, 0x00, 0x00, 0x00, 0x06, 0x00, 0x00, 0x00, 0x14, 0x00, 0x00, 0x00, 0x30, 0x00, 0x00, 0x00, 0x02, 0x00, 0x00, 0x00, 0x0a, 0x00, 0x00, 0x00, 0x0a, 0x00, 0x00, 0x00, 0x19, 0x00, 0x00, 0x00, 0x73, 0x65, 0x71, 0x75, 0x65, 0x6e, 0x74, 0x69, 0x61, 0x6c, 0x2f, 0x64, 0x65, 0x6e, 0x73, 0x65, 0x5f, 0x31, 0x2f, 0x4d, 0x61, 0x74, 0x4d, 0x75, 0x6c, 0x00, 0x00, 0x00, 0x14, 0xfd, 0xff, 0xff, 0xf6, 0xfd, 0xff, 0xff, 0x04, 0x00, 0x00, 0x00, 0xa0, 0x00, 0x00, 0x00, 0x44, 0x9c, 0x38, 0xbe, 0x0c, 0x52, 0x02, 0x3e, 0x7b, 0xbd, 0x98, 0xbe, 0x4c, 0x73, 0x6d, 0xbe, 0x4f, 0x2e, 0xab, 0xbc, 0x8e, 0xea, 0x44, 0xbe, 0x63, 0x46, 0x08, 0x3f, 0x83, 0x62, 0x3d, 0x3f, 0xbb, 0xf5, 0x26, 0xbe, 0xfb, 0x6e, 0xe9, 0x3e, 0xf4, 0x54, 0x1d, 0x3e, 0xf6, 0x09, 0xdd, 0x3e, 0x06, 0x89, 0xf5, 0xbe, 0x5c, 0xf9, 0xf5, 0x3e, 0x59, 0x3f, 0x13, 0xbf, 0xc0, 0xe5, 0xce, 0xbd, 0x00, 0x50, 0x82, 0x3b, 0x1f, 0x4a, 0x9a, 0xbe, 0x58, 0x63, 0xf8, 0x3d, 0xe4, 0x45, 0x53, 0xbe, 0xf9, 0x7f, 0x18, 0xbd, 0xff, 0x1c, 0x7c, 0xbe, 0x87, 0x9c, 0xbe, 0x3e, 0xe1, 0x7e, 0xd0, 0xbe, 0x29, 0x99, 0x92, 0x3e, 0xad, 0x27, 0xd3, 0x3e, 0x32, 0x90, 0x3d, 0xbe, 0xfe, 0xd7, 0x87, 0x3e, 0x3b, 0x40, 0xa6, 0x3d, 0xd9, 0x08, 0xfc, 0x3c, 0x4b, 0x73, 0x38, 0x3e, 0x44, 0x2b, 0xa1, 0x3e, 0xa3, 0x07, 0x04, 0x3e, 0x27, 0x91, 0x14, 0xbe, 0xad, 0xb1, 0x09, 0xbe, 0x07, 0xd6, 0xc8, 0xbe, 0xf4, 0xf7, 0x01, 0x3e, 0x27, 0xfd, 0xc4, 0x3e, 0x4d, 0xd6, 0xbd, 0x3e, 0x8a, 0x42, 0x16, 0xbf, 0x82, 0xfe, 0xff, 0xff, 0x10, 0x00, 0x00, 0x00, 0x05, 0x00, 0x00, 0x00, 0x14, 0x00, 0x00, 0x00, 0x2c, 0x00, 0x00, 0x00, 0x02, 0x00, 0x00, 0x00, 0x0a, 0x00, 0x00, 0x00, 0x04, 0x00, 0x00, 0x00, 0x17, 0x00, 0x00, 0x00, 0x73, 0x65, 0x71, 0x75, 0x65, 0x6e, 0x74, 0x69, 0x61, 0x6c, 0x2f, 0x64, 0x65, 0x6e, 0x73, 0x65, 0x2f, 0x4d, 0x61, 0x74, 0x4d, 0x75, 0x6c, 0x00, 0x00, 0xfe, 0xff, 0xff, 0xe2, 0xfe, 0xff, 0xff, 0x04, 0x00, 0x00, 0x00, 0x28, 0x00, 0x00, 0x00, 0x00, 0x00, 0x00, 0x00, 0xa4, 0x75, 0x0c, 0xbe, 0x53, 0xcd, 0x9d, 0xbd, 0x00, 0x00, 0x00, 0x00, 0x00, 0x00, 0x00, 0x00, 0xd6, 0x70, 0xcb, 0xbd, 0x17, 0xf3, 0xa4, 0x3d, 0x64, 0x30, 0xac, 0x3d, 0x1c, 0xb1, 0x65, 0xbc, 0xc6, 0x9b, 0x03, 0x3d, 0xf6, 0xfe, 0xff, 0xff, 0x10, 0x00, 0x00, 0x00, 0x04, 0x00, 0x00, 0x00, 0x10, 0x00, 0x00, 0x00, 0x44, 0x00, 0x00, 0x00, 0x01, 0x00, 0x00, 0x00, 0x0a, 0x00, 0x00, 0x00, 0x30, 0x00, 0x00, 0x00, 0x73, 0x65, 0x71, 0x75, 0x65, 0x6e, 0x74, 0x69, 0x61, 0x6c, 0x2f, 0x64, 0x65, 0x6e, 0x73, 0x65, 0x2f, 0x42, 0x69, 0x61, 0x73, 0x41, 0x64, 0x64, 0x2f, 0x52, 0x65, 0x61, 0x64, 0x56, 0x61, 0x72, 0x69, 0x61, 0x62, 0x6c, 0x65, 0x4f, 0x70, 0x2f, 0x72, 0x65, 0x73, 0x6f, 0x75, 0x72, 0x63, 0x65, 0x00, 0x00, 0x00, 0x00, 0x8c, 0xfe, 0xff, 0xff, 0x6e, 0xff, 0xff, 0xff, 0x04, 0x00, 0x00, 0x00, 0x28, 0x00, 0x00, 0x00, 0xb4, 0x61, 0xe5, 0xbd, 0x00, 0x00, 0x00, 0x00, 0x72, 0x2c, 0xdf, 0xbd, 0x00, 0x00, 0x00, 0x00, 0x5c, 0x5a, 0xf5, 0xbd, 0x00, 0x00, 0x00, 0x00, 0xd2, 0x2e, 0x35, 0x3e, 0x00, 0x00, 0x00, 0x00, 0xd0, 0x06, 0x58, 0x3c, 0x6f, 0x81, 0x24, 0x3e, 0x82, 0xff, 0xff, 0xff, 0x10, 0x00, 0x00, 0x00, 0x03, 0x00, 0x00, 0x00, 0x10, 0x00, 0x00, 0x00, 0x48, 0x00, 0x00, 0x00, 0x01, 0x00, 0x00, 0x00, 0x0a, 0x00, 0x00, 0x00, 0x32, 0x00, 0x00, 0x00, 0x73, 0x65, 0x71, 0x75, 0x65, 0x6e, 0x74, 0x69, 0x61, 0x6c, 0x2f, 0x64, 0x65, 0x6e, 0x73, 0x65, 0x5f, 0x31, 0x2f, 0x42, 0x69, 0x61, 0x73, 0x41, 0x64, 0x64, 0x2f, 0x52, 0x65, 0x61, 0x64, 0x56, 0x61, 0x72, 0x69, 0x61, 0x62, 0x6c, 0x65, 0x4f, 0x70, 0x2f, 0x72, 0x65, 0x73, 0x6f, 0x75, 0x72, 0x63, 0x65, 0x00, 0x00, 0x04, 0x00, 0x06, 0x00, 0x04, 0x00, 0x00, 0x00, 0x00, 0x00, 0x06, 0x00, 0x08, 0x00, 0x04, 0x00, 0x06, 0x00, 0x00, 0x00, 0x04, 0x00, 0x00, 0x00, 0x0c, 0x00, 0x00, 0x00, 0xa7, 0xa7, 0xfe, 0x3d, 0x6b, 0xb5, 0x33, 0x3c, 0xbc, 0xa0, 0x00, 0xbe, 0x00, 0x00, 0x0e, 0x00, 0x14, 0x00, 0x04, 0x00, 0x00, 0x00, 0x08, 0x00, 0x0c, 0x00, 0x10, 0x00, 0x0e, 0x00, 0x00, 0x00, 0x10, 0x00, 0x00, 0x00, 0x02, 0x00, 0x00, 0x00, 0x10, 0x00, 0x00, 0x00, 0x44, 0x00, 0x00, 0x00, 0x01, 0x00, 0x00, 0x00, 0x03, 0x00, 0x00, 0x00, 0x32, 0x00, 0x00, 0x00, 0x73, 0x65, 0x71, 0x75, 0x65, 0x6e, 0x74, 0x69, 0x61, 0x6c, 0x2f, 0x64, 0x65, 0x6e, 0x73, 0x65, 0x5f, 0x32, 0x2f, 0x42, 0x69, 0x61, 0x73, 0x41, 0x64, 0x64, 0x2f, 0x52, 0x65, 0x61, 0x64, 0x56, 0x61, 0x72, 0x69, 0x61, 0x62, 0x6c, 0x65, 0x4f, 0x70, 0x2f, 0x72, 0x65, 0x73, 0x6f, 0x75, 0x72, 0x63, 0x65, 0x00, 0x00, 0xa4, 0xff, 0xff, 0xff, 0x14, 0x00, 0x18, 0x00, 0x04, 0x00, 0x00, 0x00, 0x08, 0x00, 0x0c, 0x00, 0x10, 0x00, 0x00, 0x00, 0x00, 0x00, 0x14, 0x00, 0x14, 0x00, 0x00, 0x00, 0x14, 0x00, 0x00, 0x00, 0x01, 0x00, 0x00, 0x00, 0x24, 0x00, 0x00, 0x00, 0x30, 0x00, 0x00, 0x00, 0x10, 0x00, 0x00, 0x00, 0x02, 0x00, 0x00, 0x00, 0x01, 0x00, 0x00, 0x00, 0x04, 0x00, 0x00, 0x00, 0x02, 0x00, 0x00, 0x00, 0xff, 0xff, 0xff, 0xff, 0x04, 0x00, 0x00, 0x00, 0x0b, 0x00, 0x00, 0x00, 0x64, 0x65, 0x6e, 0x73, 0x65, 0x5f, 0x69, 0x6e, 0x70, 0x75, 0x74, 0x00, 0xfc, 0xff, 0xff, 0xff, 0x04, 0x00, 0x04, 0x00, 0x04, 0x00, 0x00, 0x00};
const int tinymlgen_model_len = 2548;

int main(void) {
    int result = 0;
    return result;
}
