
#ifdef __has_attribute
#define HAVE_ATTRIBUTE(x) __has_attribute(x)
#else
#define HAVE_ATTRIBUTE(x) 0
#endif
#if HAVE_ATTRIBUTE(aligned) || (defined(__GNUC__) && !defined(__clang__))
#define DATA_ALIGN_ATTRIBUTE __attribute__((aligned(4)))
#else
#define DATA_ALIGN_ATTRIBUTE
#endif

const unsigned char tinymlgen_model[] DATA_ALIGN_ATTRIBUTE = {0x1c, 0x00, 0x00, 0x00, 0x54, 0x46, 0x4c, 0x33, 0x14, 0x00, 0x20, 0x00, 0x04, 0x00, 0x08, 0x00, 0x0c, 0x00, 0x10, 0x00, 0x14, 0x00, 0x00, 0x00, 0x18, 0x00, 0x1c, 0x00, 0x14, 0x00, 0x00, 0x00, 0x03, 0x00, 0x00, 0x00, 0x18, 0x00, 0x00, 0x00, 0x20, 0x00, 0x00, 0x00, 0xb0, 0x00, 0x00, 0x00, 0x20, 0x00, 0x00, 0x00, 0x58, 0x00, 0x00, 0x00, 0x50, 0x00, 0x00, 0x00, 0x02, 0x00, 0x00, 0x00, 0x8c, 0x03, 0x00, 0x00, 0x70, 0x01, 0x00, 0x00, 0x01, 0x00, 0x00, 0x00, 0xb4, 0x00, 0x00, 0x00, 0x0d, 0x00, 0x00, 0x00, 0x9c, 0x09, 0x00, 0x00, 0x98, 0x09, 0x00, 0x00, 0xb8, 0x08, 0x00, 0x00, 0x1c, 0x08, 0x00, 0x00, 0x8c, 0x07, 0x00, 0x00, 0x9c, 0x06, 0x00, 0x00, 0xb8, 0x04, 0x00, 0x00, 0xec, 0x03, 0x00, 0x00, 0x7c, 0x09, 0x00, 0x00, 0x78, 0x09, 0x00, 0x00, 0x74, 0x09, 0x00, 0x00, 0x70, 0x09, 0x00, 0x00, 0x3c, 0x00, 0x00, 0x00, 0x00, 0x00, 0x00, 0x00, 0x01, 0x00, 0x00, 0x00, 0x0c, 0x00, 0x00, 0x00, 0x08, 0x00, 0x0c, 0x00, 0x04, 0x00, 0x08, 0x00, 0x08, 0x00, 0x00, 0x00, 0x08, 0x00, 0x00, 0x00, 0x0c, 0x00, 0x00, 0x00, 0x13, 0x00, 0x00, 0x00, 0x6d, 0x69, 0x6e, 0x5f, 0x72, 0x75, 0x6e, 0x74, 0x69, 0x6d, 0x65, 0x5f, 0x76, 0x65, 0x72, 0x73, 0x69, 0x6f, 0x6e, 0x00, 0xb2, 0xf7, 0xff, 0xff, 0x04, 0x00, 0x00, 0x00, 0x10, 0x00, 0x00, 0x00, 0x31, 0x2e, 0x35, 0x2e, 0x30, 0x00, 0x00, 0x00, 0x00, 0x00, 0x00, 0x00, 0x00, 0x00, 0x00, 0x00, 0x0f, 0x00, 0x00, 0x00, 0x4d, 0x4c, 0x49, 0x52, 0x20, 0x43, 0x6f, 0x6e, 0x76, 0x65, 0x72, 0x74, 0x65, 0x64, 0x2e, 0x00, 0x00, 0x00, 0x0e, 0x00, 0x18, 0x00, 0x04, 0x00, 0x08, 0x00, 0x0c, 0x00, 0x10, 0x00, 0x14, 0x00, 0x0e, 0x00, 0x00, 0x00, 0x14, 0x00, 0x00, 0x00, 0x40, 0x00, 0x00, 0x00, 0x44, 0x00, 0x00, 0x00, 0x48, 0x00, 0x00, 0x00, 0x58, 0x00, 0x00, 0x00, 0x0b, 0x00, 0x00, 0x00, 0x8c, 0x08, 0x00, 0x00, 0x1c, 0x08, 0x00, 0x00, 0x8c, 0x07, 0x00, 0x00, 0xfc, 0x06, 0x00, 0x00, 0x84, 0x06, 0x00, 0x00, 0x90, 0x05, 0x00, 0x00, 0xac, 0x03, 0x00, 0x00, 0xa4, 0x02, 0x00, 0x00, 0xb0, 0x01, 0x00, 0x00, 0xf8, 0x00, 0x00, 0x00, 0x80, 0x00, 0x00, 0x00, 0x01, 0x00, 0x00, 0x00, 0x00, 0x00, 0x00, 0x00, 0x01, 0x00, 0x00, 0x00, 0x0a, 0x00, 0x00, 0x00, 0x04, 0x00, 0x00, 0x00, 0x28, 0x02, 0x00, 0x00, 0x58, 0x01, 0x00, 0x00, 0xa4, 0x00, 0x00, 0x00, 0x1c, 0x00, 0x00, 0x00, 0x04, 0x00, 0x00, 0x00, 0x6d, 0x61, 0x69, 0x6e, 0x00, 0x00, 0x0e, 0x00, 0x18, 0x00, 0x08, 0x00, 0x0c, 0x00, 0x10, 0x00, 0x07, 0x00, 0x14, 0x00, 0x0e, 0x00, 0x00, 0x00, 0x00, 0x00, 0x00, 0x09, 0x01, 0x00, 0x00, 0x00, 0x1c, 0x00, 0x00, 0x00, 0x10, 0x00, 0x00, 0x00, 0x04, 0x00, 0x00, 0x00, 0x8e, 0xf8, 0xff, 0xff, 0x00, 0x00, 0x80, 0x3f, 0x01, 0x00, 0x00, 0x00, 0x0a, 0x00, 0x00, 0x00, 0x01, 0x00, 0x00, 0x00, 0x09, 0x00, 0x00, 0x00, 0xf4, 0xfd, 0xff, 0xff, 0x19, 0x00, 0x00, 0x00, 0x00, 0x00, 0x00, 0x19, 0x01, 0x00, 0x00, 0x00, 0x30, 0xf8, 0xff, 0xff, 0x14, 0x00, 0x00, 0x00, 0x0b, 0x00, 0x00, 0x00, 0x24, 0x00, 0x00, 0x00, 0x30, 0x00, 0x00, 0x00, 0x10, 0x00, 0x00, 0x00, 0x02, 0x00, 0x00, 0x00, 0x01, 0x00, 0x00, 0x00, 0x03, 0x00, 0x00, 0x00, 0x02, 0x00, 0x00, 0x00, 0xff, 0xff, 0xff, 0xff, 0x03, 0x00, 0x00, 0x00, 0x08, 0x00, 0x00, 0x00, 0x49, 0x64, 0x65, 0x6e, 0x74, 0x69, 0x74, 0x79, 0x00, 0x00, 0x00, 0x00, 0x18, 0xf8, 0xff, 0xff, 0x5e, 0xff, 0xff, 0xff, 0x00, 0x00, 0x00, 0x08, 0x18, 0x00, 0x00, 0x00, 0x0c, 0x00, 0x00, 0x00, 0x04, 0x00, 0x00, 0x00, 0x30, 0xf8, 0xff, 0xff, 0x01, 0x00, 0x00, 0x00, 0x09, 0x00, 0x00, 0x00, 0x03, 0x00, 0x00, 0x00, 0x08, 0x00, 0x00, 0x00, 0x06, 0x00, 0x00, 0x00, 0x01, 0x00, 0x00, 0x00, 0xa4, 0xf8, 0xff, 0xff, 0x14, 0x00, 0x00, 0x00, 0x0a, 0x00, 0x00, 0x00, 0x24, 0x00, 0x00, 0x00, 0x5c, 0x00, 0x00, 0x00, 0x10, 0x00, 0x00, 0x00, 0x02, 0x00, 0x00, 0x00, 0x01, 0x00, 0x00, 0x00, 0x03, 0x00, 0x00, 0x00, 0x02, 0x00, 0x00, 0x00, 0xff, 0xff, 0xff, 0xff, 0x03, 0x00, 0x00, 0x00, 0x34, 0x00, 0x00, 0x00, 0x73, 0x65, 0x71, 0x75, 0x65, 0x6e, 0x74, 0x69, 0x61, 0x6c, 0x2f, 0x64, 0x65, 0x6e, 0x73, 0x65, 0x5f, 0x32, 0x2f, 0x4d, 0x61, 0x74, 0x4d, 0x75, 0x6c, 0x3b, 0x73, 0x65, 0x71, 0x75, 0x65, 0x6e, 0x74, 0x69, 0x61, 0x6c, 0x2f, 0x64, 0x65, 0x6e, 0x73, 0x65, 0x5f, 0x32, 0x2f, 0x42, 0x69, 0x61, 0x73, 0x41, 0x64, 0x64, 0x00, 0x00, 0x00, 0x00, 0xa0, 0xf9, 0xff, 0xff, 0x00, 0x00, 0x0e, 0x00, 0x14, 0x00, 0x00, 0x00, 0x08, 0x00, 0x0c, 0x00, 0x07, 0x00, 0x10, 0x00, 0x0e, 0x00, 0x00, 0x00, 0x00, 0x00, 0x00, 0x08, 0x1c, 0x00, 0x00, 0x00, 0x10, 0x00, 0x00, 0x00, 0x04, 0x00, 0x00, 0x00, 0x32, 0xff, 0xff, 0xff, 0x00, 0x00, 0x00, 0x01, 0x01, 0x00, 0x00, 0x00, 0x08, 0x00, 0x00, 0x00, 0x03, 0x00, 0x00, 0x00, 0x07, 0x00, 0x00, 0x00, 0x05, 0x00, 0x00, 0x00, 0x02, 0x00, 0x00, 0x00, 0x58, 0xf9, 0xff, 0xff, 0x14, 0x00, 0x00, 0x00, 0x09, 0x00, 0x00, 0x00, 0x24, 0x00, 0x00, 0x00, 0x74, 0x00, 0x00, 0x00, 0x10, 0x00, 0x00, 0x00, 0x02, 0x00, 0x00, 0x00, 0x01, 0x00, 0x00, 0x00, 0x0a, 0x00, 0x00, 0x00, 0x02, 0x00, 0x00, 0x00, 0xff, 0xff, 0xff, 0xff, 0x0a, 0x00, 0x00, 0x00, 0x4c, 0x00, 0x00, 0x00, 0x73, 0x65, 0x71, 0x75, 0x65, 0x6e, 0x74, 0x69, 0x61, 0x6c, 0x2f, 0x64, 0x65, 0x6e, 0x73, 0x65, 0x5f, 0x31, 0x2f, 0x4d, 0x61, 0x74, 0x4d, 0x75, 0x6c, 0x3b, 0x73, 0x65, 0x71, 0x75, 0x65, 0x6e, 0x74, 0x69, 0x61, 0x6c, 0x2f, 0x64, 0x65, 0x6e, 0x73, 0x65, 0x5f, 0x31, 0x2f, 0x52, 0x65, 0x6c, 0x75, 0x3b, 0x73, 0x65, 0x71, 0x75, 0x65, 0x6e, 0x74, 0x69, 0x61, 0x6c, 0x2f, 0x64, 0x65, 0x6e, 0x73, 0x65, 0x5f, 0x31, 0x2f, 0x42, 0x69, 0x61, 0x73, 0x41, 0x64, 0x64, 0x00, 0x00, 0x00, 0x00, 0x6c, 0xfa, 0xff, 0xff, 0x00, 0x00, 0x0e, 0x00, 0x16, 0x00, 0x00, 0x00, 0x08, 0x00, 0x0c, 0x00, 0x07, 0x00, 0x10, 0x00, 0x0e, 0x00, 0x00, 0x00, 0x00, 0x00, 0x00, 0x08, 0x24, 0x00, 0x00, 0x00, 0x18, 0x00, 0x00, 0x00, 0x0c, 0x00, 0x00, 0x00, 0x00, 0x00, 0x06, 0x00, 0x08, 0x00, 0x07, 0x00, 0x06, 0x00, 0x00, 0x00, 0x00, 0x00, 0x00, 0x01, 0x01, 0x00, 0x00, 0x00, 0x07, 0x00, 0x00, 0x00, 0x03, 0x00, 0x00, 0x00, 0x00, 0x00, 0x00, 0x00, 0x04, 0x00, 0x00, 0x00, 0x03, 0x00, 0x00, 0x00, 0x0c, 0x00, 0x10, 0x00, 0x0b, 0x00, 0x00, 0x00, 0x0c, 0x00, 0x04, 0x00, 0x0c, 0x00, 0x00, 0x00, 0x09, 0x00, 0x00, 0x00, 0x00, 0x00, 0x00, 0x09, 0x01, 0x00, 0x00, 0x00, 0x48, 0xfa, 0xff, 0xff, 0x14, 0x00, 0x00, 0x00, 0x08, 0x00, 0x00, 0x00, 0x24, 0x00, 0x00, 0x00, 0x6c, 0x00, 0x00, 0x00, 0x10, 0x00, 0x00, 0x00, 0x02, 0x00, 0x00, 0x00, 0x01, 0x00, 0x00, 0x00, 0x0a, 0x00, 0x00, 0x00, 0x02, 0x00, 0x00, 0x00, 0xff, 0xff, 0xff, 0xff, 0x0a, 0x00, 0x00, 0x00, 0x46, 0x00, 0x00, 0x00, 0x73, 0x65, 0x71, 0x75, 0x65, 0x6e, 0x74, 0x69, 0x61, 0x6c, 0x2f, 0x64, 0x65, 0x6e, 0x73, 0x65, 0x2f, 0x4d, 0x61, 0x74, 0x4d, 0x75, 0x6c, 0x3b, 0x73, 0x65, 0x71, 0x75, 0x65, 0x6e, 0x74, 0x69, 0x61, 0x6c, 0x2f, 0x64, 0x65, 0x6e, 0x73, 0x65, 0x2f, 0x52, 0x65, 0x6c, 0x75, 0x3b, 0x73, 0x65, 0x71, 0x75, 0x65, 0x6e, 0x74, 0x69, 0x61, 0x6c, 0x2f, 0x64, 0x65, 0x6e, 0x73, 0x65, 0x2f, 0x42, 0x69, 0x61, 0x73, 0x41, 0x64, 0x64, 0x00, 0x00, 0x6c, 0xfa, 0xff, 0xff, 0x4e, 0xfb, 0xff, 0xff, 0x04, 0x00, 0x00, 0x00, 0x78, 0x00, 0x00, 0x00, 0x03, 0x6e, 0xb6, 0xbe, 0x81, 0xa4, 0xe6, 0xbe, 0x16, 0xc7, 0x57, 0x3f, 0xa2, 0x74, 0x49, 0x3e, 0x05, 0xb2, 0x27, 0xbf, 0xa7, 0x03, 0x4f, 0x3f, 0x0a, 0x86, 0x6c, 0x3e, 0xdd, 0xbd, 0x74, 0xbe, 0x66, 0xa7, 0xaf, 0xbe, 0xa1, 0x55, 0xa6, 0xbe, 0xd2, 0x2b, 0x26, 0xbf, 0xfe, 0xc9, 0x48, 0x3d, 0xa3, 0x81, 0x41, 0xbf, 0x10, 0xd3, 0x0a, 0xbf, 0x4e, 0x0b, 0xe4, 0xbc, 0x33, 0x8d, 0xb5, 0x3e, 0x01, 0x48, 0xc7, 0xbe, 0x0b, 0xeb, 0x3e, 0x3e, 0x02, 0xfc, 0x49, 0xbe, 0xdd, 0xb0, 0xd2, 0xbd, 0x4f, 0xa9, 0xca, 0xbe, 0x3e, 0xb5, 0xc5, 0x3e, 0xa9, 0x54, 0xaa, 0x3e, 0xe3, 0x5f, 0x1f, 0x3f, 0x17, 0x7c, 0xb2, 0xbe, 0x06, 0xa2, 0x0a, 0x3e, 0x80, 0xcc, 0x56, 0x3d, 0x7a, 0x86, 0x84, 0xbe, 0x80, 0x7e, 0x18, 0xbe, 0x43, 0xfe, 0x07, 0x3f, 0xb2, 0xfb, 0xff, 0xff, 0x10, 0x00, 0x00, 0x00, 0x07, 0x00, 0x00, 0x00, 0x14, 0x00, 0x00, 0x00, 0x30, 0x00, 0x00, 0x00, 0x02, 0x00, 0x00, 0x00, 0x03, 0x00, 0x00, 0x00, 0x0a, 0x00, 0x00, 0x00, 0x19, 0x00, 0x00, 0x00, 0x73, 0x65, 0x71, 0x75, 0x65, 0x6e, 0x74, 0x69, 0x61, 0x6c, 0x2f, 0x64, 0x65, 0x6e, 0x73, 0x65, 0x5f, 0x32, 0x2f, 0x4d, 0x61, 0x74, 0x4d, 0x75, 0x6c, 0x00, 0x00, 0x00, 0x34, 0xfb, 0xff, 0xff, 0x16, 0xfc, 0xff, 0xff, 0x04, 0x00, 0x00, 0x00, 0x90, 0x01, 0x00, 0x00, 0xe0, 0x0f, 0xd0, 0xbc, 0x40, 0x95, 0x49, 0xbc, 0x60, 0xb3, 0xcc, 0x3e, 0x4c, 0x75, 0xfa, 0xbd, 0x68, 0xe3, 0x82, 0xbe, 0xf8, 0x1d, 0xfe, 0xbd, 0xa0, 0xf5, 0xfe, 0xbc, 0xc8, 0x20, 0x8c, 0xbe, 0x11, 0x36, 0xfa, 0xbe, 0xd3, 0xda, 0x94, 0xbe, 0x10, 0xae, 0x08, 0x3e, 0x71, 0x74, 0x9d, 0x3e, 0x1f, 0x30, 0x7b, 0x3e, 0x4c, 0xa3, 0xbc, 0x3d, 0x08, 0x54, 0x5f, 0x3e, 0xc4, 0x8f, 0x08, 0xbe, 0xa7, 0x55, 0x67, 0xbd, 0x3c, 0x16, 0xf7, 0xba, 0xdb, 0x07, 0x7a, 0x3e, 0x0b, 0x41, 0x06, 0xbf, 0x54, 0x1b, 0x22, 0xbe, 0x84, 0xa6, 0x4c, 0x3f, 0x25, 0x5e, 0xc3, 0x3e, 0x0e, 0xcb, 0x54, 0xbf, 0x84, 0xf7, 0xfb, 0xbd, 0x0c, 0xa9, 0x76, 0x3e, 0x70, 0x29, 0x0e, 0x3d, 0xbe, 0x04, 0x15, 0xbf, 0x1c, 0x89, 0x90, 0xbe, 0xae, 0xc8, 0xb6, 0x3e, 0x2e, 0x25, 0xe4, 0xbe, 0xe0, 0x98, 0xca, 0xbe, 0xce, 0x4e, 0xdc, 0x3e, 0xbf, 0x13, 0x14, 0xbe, 0x89, 0xea, 0xfd, 0xbe, 0x86, 0x05, 0x72, 0xbe, 0x38, 0xec, 0x34, 0x3e, 0x58, 0xfd, 0xe4, 0xbe, 0xa0, 0x1b, 0xaf, 0x3e, 0x18, 0x6f, 0x90, 0x3e, 0xc0, 0x52, 0x09, 0xbe, 0x94, 0xfe, 0x81, 0x3b, 0xd4, 0x64, 0x8d, 0xbe, 0x80, 0xe5, 0x62, 0x3e, 0xe0, 0xb5, 0xf1, 0x3c, 0xee, 0x54, 0xb0, 0x3e, 0x20, 0x4b, 0x9c, 0x3d, 0xe0, 0xaf, 0xf4, 0xbe, 0x89, 0xc7, 0x42, 0x3e, 0x80, 0x15, 0xef, 0xbc, 0x60, 0x16, 0x14, 0xbd, 0x19, 0x41, 0x03, 0x3f, 0x9f, 0x66, 0x4e, 0xbd, 0x87, 0xe0, 0x4d, 0xbf, 0xe0, 0xf8, 0x3d, 0x3e, 0xdc, 0xf6, 0xbb, 0xbd, 0x59, 0x83, 0x5b, 0xbe, 0xf9, 0xed, 0xdc, 0x3d, 0xba, 0x59, 0xb1, 0x3e, 0x5e, 0x1c, 0xff, 0xbe, 0x94, 0xe5, 0xa0, 0xbe, 0x61, 0xfe, 0xb6, 0xbe, 0x8e, 0xea, 0x15, 0xbd, 0xf8, 0xa1, 0xc5, 0x3e, 0xce, 0x1e, 0xc6, 0x3e, 0x4c, 0xca, 0xb3, 0xbd, 0x78, 0x27, 0xa1, 0x3e, 0x65, 0x27, 0x8c, 0x3e, 0x22, 0xc4, 0x84, 0xbe, 0x12, 0xb6, 0xcb, 0xbe, 0xd8, 0xdd, 0xd7, 0x3d, 0x0a, 0x83, 0xa7, 0x3e, 0x4e, 0x80, 0x14, 0x3f, 0xfe, 0x52, 0x75, 0xbe, 0x5b, 0x19, 0xe4, 0xbe, 0xe8, 0x3b, 0x59, 0xbd, 0x55, 0x7a, 0x4b, 0x3d, 0x6c, 0x25, 0x26, 0xbe, 0x4a, 0x5e, 0x8f, 0x3e, 0xdc, 0x7d, 0xb8, 0xbe, 0x7a, 0x36, 0xdb, 0xbe, 0xcb, 0x25, 0xaa, 0xbe, 0x00, 0x8f, 0xc0, 0xbc, 0x9d, 0x2a, 0x09, 0xbf, 0xfc, 0x19, 0x0b, 0x3e, 0x1c, 0xd7, 0xa9, 0xbe, 0x34, 0x94, 0x61, 0xbe, 0x98, 0xe1, 0xc0, 0xbd, 0x78, 0x77, 0xca, 0x3d, 0xf2, 0xe6, 0x8f, 0x3e, 0x58, 0x09, 0x24, 0x3e, 0xe2, 0xb4, 0x0c, 0xbf, 0xc3, 0x1a, 0xd5, 0x3e, 0x5e, 0xd0, 0x8a, 0xbd, 0xee, 0x80, 0x3c, 0xbe, 0x88, 0x34, 0x5d, 0x3e, 0x5c, 0x59, 0x04, 0xbf, 0xfc, 0x00, 0xcd, 0x3d, 0xc7, 0x86, 0x42, 0x3e, 0xe2, 0x5b, 0xae, 0xbe, 0x92, 0xfd, 0xff, 0xff, 0x10, 0x00, 0x00, 0x00, 0x06, 0x00, 0x00, 0x00, 0x14, 0x00, 0x00, 0x00, 0x30, 0x00, 0x00, 0x00, 0x02, 0x00, 0x00, 0x00, 0x0a, 0x00, 0x00, 0x00, 0x0a, 0x00, 0x00, 0x00, 0x19, 0x00, 0x00, 0x00, 0x73, 0x65, 0x71, 0x75, 0x65, 0x6e, 0x74, 0x69, 0x61, 0x6c, 0x2f, 0x64, 0x65, 0x6e, 0x73, 0x65, 0x5f, 0x31, 0x2f, 0x4d, 0x61, 0x74, 0x4d, 0x75, 0x6c, 0x00, 0x00, 0x00, 0x14, 0xfd, 0xff, 0xff, 0xf6, 0xfd, 0xff, 0xff, 0x04, 0x00, 0x00, 0x00, 0xa0, 0x00, 0x00, 0x00, 0x6c, 0x63, 0x23, 0x3e, 0x28, 0x39, 0xb3, 0xbe, 0x2f, 0xe5, 0x9f, 0xbe, 0x24, 0x44, 0xca, 0xbe, 0x1b, 0x9e, 0x17, 0x3f, 0x7b, 0x3e, 0xa4, 0x3d, 0x60, 0x71, 0x2e, 0xbe, 0x8a, 0x36, 0x1c, 0xbf, 0x66, 0x63, 0x53, 0x3e, 0x65, 0x4d, 0x98, 0xbd, 0xeb, 0x4b, 0x11, 0x3f, 0x8d, 0x0f, 0xc0, 0x3e, 0x49, 0xd5, 0xe4, 0xbd, 0x46, 0x1e, 0x25, 0xbe, 0xdb, 0x2e, 0x3e, 0x3f, 0xbc, 0xaf, 0xe5, 0xbd, 0x51, 0x3e, 0xc7, 0xbe, 0x24, 0x01, 0x92, 0x3e, 0x40, 0x3d, 0xfe, 0x3d, 0x26, 0x9a, 0x88, 0x3e, 0x6f, 0x4b, 0xf8, 0xbe, 0xb2, 0x75, 0x13, 0xbf, 0xc2, 0x5a, 0x06, 0xbf, 0xe0, 0x3d, 0x1c, 0x3d, 0x43, 0xf2, 0xbf, 0xbe, 0x0c, 0xa0, 0x26, 0x3e, 0xcf, 0x0a, 0xd0, 0x3e, 0x9e, 0xbc, 0xb8, 0xbe, 0x78, 0x64, 0x13, 0x3e, 0x3c, 0x71, 0x99, 0xbe, 0x75, 0xb6, 0x10, 0x3f, 0xb7, 0x8b, 0xf9, 0x3e, 0xc8, 0x92, 0xd3, 0xbd, 0x30, 0x01, 0x07, 0x3f, 0x27, 0xb2, 0xce, 0x3e, 0x8b, 0x46, 0x11, 0xbf, 0x70, 0xf8, 0x5c, 0x3d, 0xf0, 0x15, 0xf2, 0x3d, 0x47, 0xff, 0x1d, 0xbf, 0x91, 0xc7, 0x13, 0xbf, 0x82, 0xfe, 0xff, 0xff, 0x10, 0x00, 0x00, 0x00, 0x05, 0x00, 0x00, 0x00, 0x14, 0x00, 0x00, 0x00, 0x2c, 0x00, 0x00, 0x00, 0x02, 0x00, 0x00, 0x00, 0x0a, 0x00, 0x00, 0x00, 0x04, 0x00, 0x00, 0x00, 0x17, 0x00, 0x00, 0x00, 0x73, 0x65, 0x71, 0x75, 0x65, 0x6e, 0x74, 0x69, 0x61, 0x6c, 0x2f, 0x64, 0x65, 0x6e, 0x73, 0x65, 0x2f, 0x4d, 0x61, 0x74, 0x4d, 0x75, 0x6c, 0x00, 0x00, 0xfe, 0xff, 0xff, 0xe2, 0xfe, 0xff, 0xff, 0x04, 0x00, 0x00, 0x00, 0x28, 0x00, 0x00, 0x00, 0x00, 0x00, 0x00, 0x00, 0x83, 0x26, 0xab, 0x3d, 0xb4, 0xf7, 0x2a, 0xbd, 0x7d, 0xfc, 0xf4, 0x3c, 0x00, 0x00, 0x00, 0x00, 0x00, 0x00, 0x00, 0x00, 0xee, 0x32, 0xdb, 0xbc, 0x7c, 0x55, 0x84, 0x3c, 0x42, 0x1d, 0xab, 0xbd, 0x00, 0x00, 0x00, 0x00, 0xf6, 0xfe, 0xff, 0xff, 0x10, 0x00, 0x00, 0x00, 0x04, 0x00, 0x00, 0x00, 0x10, 0x00, 0x00, 0x00, 0x44, 0x00, 0x00, 0x00, 0x01, 0x00, 0x00, 0x00, 0x0a, 0x00, 0x00, 0x00, 0x30, 0x00, 0x00, 0x00, 0x73, 0x65, 0x71, 0x75, 0x65, 0x6e, 0x74, 0x69, 0x61, 0x6c, 0x2f, 0x64, 0x65, 0x6e, 0x73, 0x65, 0x2f, 0x42, 0x69, 0x61, 0x73, 0x41, 0x64, 0x64, 0x2f, 0x52, 0x65, 0x61, 0x64, 0x56, 0x61, 0x72, 0x69, 0x61, 0x62, 0x6c, 0x65, 0x4f, 0x70, 0x2f, 0x72, 0x65, 0x73, 0x6f, 0x75, 0x72, 0x63, 0x65, 0x00, 0x00, 0x00, 0x00, 0x8c, 0xfe, 0xff, 0xff, 0x6e, 0xff, 0xff, 0xff, 0x04, 0x00, 0x00, 0x00, 0x28, 0x00, 0x00, 0x00, 0x00, 0x00, 0x00, 0x00, 0x9c, 0x7c, 0x15, 0xbe, 0x4f, 0x07, 0x6f, 0x3e, 0x29, 0x7d, 0x38, 0xbd, 0x36, 0x42, 0x03, 0xbc, 0x12, 0x31, 0x8c, 0x3e, 0xb2, 0x85, 0xc6, 0xbd, 0x8d, 0x3d, 0xa8, 0x3d, 0x00, 0x00, 0x00, 0x00, 0x62, 0x06, 0x0e, 0xbc, 0x82, 0xff, 0xff, 0xff, 0x10, 0x00, 0x00, 0x00, 0x03, 0x00, 0x00, 0x00, 0x10, 0x00, 0x00, 0x00, 0x48, 0x00, 0x00, 0x00, 0x01, 0x00, 0x00, 0x00, 0x0a, 0x00, 0x00, 0x00, 0x32, 0x00, 0x00, 0x00, 0x73, 0x65, 0x71, 0x75, 0x65, 0x6e, 0x74, 0x69, 0x61, 0x6c, 0x2f, 0x64, 0x65, 0x6e, 0x73, 0x65, 0x5f, 0x31, 0x2f, 0x42, 0x69, 0x61, 0x73, 0x41, 0x64, 0x64, 0x2f, 0x52, 0x65, 0x61, 0x64, 0x56, 0x61, 0x72, 0x69, 0x61, 0x62, 0x6c, 0x65, 0x4f, 0x70, 0x2f, 0x72, 0x65, 0x73, 0x6f, 0x75, 0x72, 0x63, 0x65, 0x00, 0x00, 0x04, 0x00, 0x06, 0x00, 0x04, 0x00, 0x00, 0x00, 0x00, 0x00, 0x06, 0x00, 0x08, 0x00, 0x04, 0x00, 0x06, 0x00, 0x00, 0x00, 0x04, 0x00, 0x00, 0x00, 0x0c, 0x00, 0x00, 0x00, 0x73, 0x01, 0x26, 0x3e, 0xb4, 0x4b, 0x0a, 0x3e, 0x7d, 0x68, 0x21, 0xbe, 0x00, 0x00, 0x0e, 0x00, 0x14, 0x00, 0x04, 0x00, 0x00, 0x00, 0x08, 0x00, 0x0c, 0x00, 0x10, 0x00, 0x0e, 0x00, 0x00, 0x00, 0x10, 0x00, 0x00, 0x00, 0x02, 0x00, 0x00, 0x00, 0x10, 0x00, 0x00, 0x00, 0x44, 0x00, 0x00, 0x00, 0x01, 0x00, 0x00, 0x00, 0x03, 0x00, 0x00, 0x00, 0x32, 0x00, 0x00, 0x00, 0x73, 0x65, 0x71, 0x75, 0x65, 0x6e, 0x74, 0x69, 0x61, 0x6c, 0x2f, 0x64, 0x65, 0x6e, 0x73, 0x65, 0x5f, 0x32, 0x2f, 0x42, 0x69, 0x61, 0x73, 0x41, 0x64, 0x64, 0x2f, 0x52, 0x65, 0x61, 0x64, 0x56, 0x61, 0x72, 0x69, 0x61, 0x62, 0x6c, 0x65, 0x4f, 0x70, 0x2f, 0x72, 0x65, 0x73, 0x6f, 0x75, 0x72, 0x63, 0x65, 0x00, 0x00, 0xa4, 0xff, 0xff, 0xff, 0x14, 0x00, 0x18, 0x00, 0x04, 0x00, 0x00, 0x00, 0x08, 0x00, 0x0c, 0x00, 0x10, 0x00, 0x00, 0x00, 0x00, 0x00, 0x14, 0x00, 0x14, 0x00, 0x00, 0x00, 0x14, 0x00, 0x00, 0x00, 0x01, 0x00, 0x00, 0x00, 0x24, 0x00, 0x00, 0x00, 0x30, 0x00, 0x00, 0x00, 0x10, 0x00, 0x00, 0x00, 0x02, 0x00, 0x00, 0x00, 0x01, 0x00, 0x00, 0x00, 0x04, 0x00, 0x00, 0x00, 0x02, 0x00, 0x00, 0x00, 0xff, 0xff, 0xff, 0xff, 0x04, 0x00, 0x00, 0x00, 0x0b, 0x00, 0x00, 0x00, 0x64, 0x65, 0x6e, 0x73, 0x65, 0x5f, 0x69, 0x6e, 0x70, 0x75, 0x74, 0x00, 0xfc, 0xff, 0xff, 0xff, 0x04, 0x00, 0x04, 0x00, 0x04, 0x00, 0x00, 0x00};
const int tinymlgen_model_len = 2548;