
#ifdef __has_attribute
#define HAVE_ATTRIBUTE(x) __has_attribute(x)
#else
#define HAVE_ATTRIBUTE(x) 0
#endif
#if HAVE_ATTRIBUTE(aligned) || (defined(__GNUC__) && !defined(__clang__))
#define DATA_ALIGN_ATTRIBUTE __attribute__((aligned(4)))
#else
#define DATA_ALIGN_ATTRIBUTE
#endif

const unsigned char tinymlgen_model[] DATA_ALIGN_ATTRIBUTE = {0x1c, 0x00, 0x00, 0x00, 0x54, 0x46, 0x4c, 0x33, 0x14, 0x00, 0x20, 0x00, 0x04, 0x00, 0x08, 0x00, 0x0c, 0x00, 0x10, 0x00, 0x14, 0x00, 0x00, 0x00, 0x18, 0x00, 0x1c, 0x00, 0x14, 0x00, 0x00, 0x00, 0x03, 0x00, 0x00, 0x00, 0x18, 0x00, 0x00, 0x00, 0x20, 0x00, 0x00, 0x00, 0xb0, 0x00, 0x00, 0x00, 0x20, 0x00, 0x00, 0x00, 0x58, 0x00, 0x00, 0x00, 0x50, 0x00, 0x00, 0x00, 0x02, 0x00, 0x00, 0x00, 0x8c, 0x03, 0x00, 0x00, 0x70, 0x01, 0x00, 0x00, 0x01, 0x00, 0x00, 0x00, 0xb4, 0x00, 0x00, 0x00, 0x0d, 0x00, 0x00, 0x00, 0x80, 0x72, 0x00, 0x00, 0x7c, 0x72, 0x00, 0x00, 0x90, 0x71, 0x00, 0x00, 0x54, 0x70, 0x00, 0x00, 0x24, 0x6f, 0x00, 0x00, 0x54, 0x30, 0x00, 0x00, 0xf0, 0x08, 0x00, 0x00, 0xec, 0x03, 0x00, 0x00, 0x60, 0x72, 0x00, 0x00, 0x5c, 0x72, 0x00, 0x00, 0x58, 0x72, 0x00, 0x00, 0x54, 0x72, 0x00, 0x00, 0x3c, 0x00, 0x00, 0x00, 0x00, 0x00, 0x00, 0x00, 0x01, 0x00, 0x00, 0x00, 0x0c, 0x00, 0x00, 0x00, 0x08, 0x00, 0x0c, 0x00, 0x04, 0x00, 0x08, 0x00, 0x08, 0x00, 0x00, 0x00, 0x08, 0x00, 0x00, 0x00, 0x0c, 0x00, 0x00, 0x00, 0x13, 0x00, 0x00, 0x00, 0x6d, 0x69, 0x6e, 0x5f, 0x72, 0x75, 0x6e, 0x74, 0x69, 0x6d, 0x65, 0x5f, 0x76, 0x65, 0x72, 0x73, 0x69, 0x6f, 0x6e, 0x00, 0xda, 0x8e, 0xff, 0xff, 0x04, 0x00, 0x00, 0x00, 0x10, 0x00, 0x00, 0x00, 0x31, 0x2e, 0x35, 0x2e, 0x30, 0x00, 0x00, 0x00, 0x00, 0x00, 0x00, 0x00, 0x00, 0x00, 0x00, 0x00, 0x0f, 0x00, 0x00, 0x00, 0x4d, 0x4c, 0x49, 0x52, 0x20, 0x43, 0x6f, 0x6e, 0x76, 0x65, 0x72, 0x74, 0x65, 0x64, 0x2e, 0x00, 0x00, 0x00, 0x0e, 0x00, 0x18, 0x00, 0x04, 0x00, 0x08, 0x00, 0x0c, 0x00, 0x10, 0x00, 0x14, 0x00, 0x0e, 0x00, 0x00, 0x00, 0x14, 0x00, 0x00, 0x00, 0x40, 0x00, 0x00, 0x00, 0x44, 0x00, 0x00, 0x00, 0x48, 0x00, 0x00, 0x00, 0x58, 0x00, 0x00, 0x00, 0x0b, 0x00, 0x00, 0x00, 0x70, 0x71, 0x00, 0x00, 0x00, 0x71, 0x00, 0x00, 0x64, 0x70, 0x00, 0x00, 0x34, 0x6f, 0x00, 0x00, 0x1c, 0x6e, 0x00, 0x00, 0x48, 0x2f, 0x00, 0x00, 0xe4, 0x07, 0x00, 0x00, 0xa4, 0x02, 0x00, 0x00, 0xb0, 0x01, 0x00, 0x00, 0xf8, 0x00, 0x00, 0x00, 0x80, 0x00, 0x00, 0x00, 0x01, 0x00, 0x00, 0x00, 0x00, 0x00, 0x00, 0x00, 0x01, 0x00, 0x00, 0x00, 0x0a, 0x00, 0x00, 0x00, 0x04, 0x00, 0x00, 0x00, 0x28, 0x02, 0x00, 0x00, 0x58, 0x01, 0x00, 0x00, 0xa4, 0x00, 0x00, 0x00, 0x1c, 0x00, 0x00, 0x00, 0x04, 0x00, 0x00, 0x00, 0x6d, 0x61, 0x69, 0x6e, 0x00, 0x00, 0x0e, 0x00, 0x18, 0x00, 0x08, 0x00, 0x0c, 0x00, 0x10, 0x00, 0x07, 0x00, 0x14, 0x00, 0x0e, 0x00, 0x00, 0x00, 0x00, 0x00, 0x00, 0x09, 0x01, 0x00, 0x00, 0x00, 0x1c, 0x00, 0x00, 0x00, 0x10, 0x00, 0x00, 0x00, 0x04, 0x00, 0x00, 0x00, 0xb6, 0x8f, 0xff, 0xff, 0x00, 0x00, 0x80, 0x3f, 0x01, 0x00, 0x00, 0x00, 0x0a, 0x00, 0x00, 0x00, 0x01, 0x00, 0x00, 0x00, 0x09, 0x00, 0x00, 0x00, 0xf4, 0xfd, 0xff, 0xff, 0x19, 0x00, 0x00, 0x00, 0x00, 0x00, 0x00, 0x19, 0x01, 0x00, 0x00, 0x00, 0x4c, 0x8f, 0xff, 0xff, 0x14, 0x00, 0x00, 0x00, 0x0b, 0x00, 0x00, 0x00, 0x24, 0x00, 0x00, 0x00, 0x30, 0x00, 0x00, 0x00, 0x10, 0x00, 0x00, 0x00, 0x02, 0x00, 0x00, 0x00, 0x01, 0x00, 0x00, 0x00, 0x06, 0x00, 0x00, 0x00, 0x02, 0x00, 0x00, 0x00, 0xff, 0xff, 0xff, 0xff, 0x06, 0x00, 0x00, 0x00, 0x08, 0x00, 0x00, 0x00, 0x49, 0x64, 0x65, 0x6e, 0x74, 0x69, 0x74, 0x79, 0x00, 0x00, 0x00, 0x00, 0x34, 0x8f, 0xff, 0xff, 0x5e, 0xff, 0xff, 0xff, 0x00, 0x00, 0x00, 0x08, 0x18, 0x00, 0x00, 0x00, 0x0c, 0x00, 0x00, 0x00, 0x04, 0x00, 0x00, 0x00, 0x4c, 0x8f, 0xff, 0xff, 0x01, 0x00, 0x00, 0x00, 0x09, 0x00, 0x00, 0x00, 0x03, 0x00, 0x00, 0x00, 0x08, 0x00, 0x00, 0x00, 0x06, 0x00, 0x00, 0x00, 0x01, 0x00, 0x00, 0x00, 0xc0, 0x8f, 0xff, 0xff, 0x14, 0x00, 0x00, 0x00, 0x0a, 0x00, 0x00, 0x00, 0x24, 0x00, 0x00, 0x00, 0x5c, 0x00, 0x00, 0x00, 0x10, 0x00, 0x00, 0x00, 0x02, 0x00, 0x00, 0x00, 0x01, 0x00, 0x00, 0x00, 0x06, 0x00, 0x00, 0x00, 0x02, 0x00, 0x00, 0x00, 0xff, 0xff, 0xff, 0xff, 0x06, 0x00, 0x00, 0x00, 0x34, 0x00, 0x00, 0x00, 0x73, 0x65, 0x71, 0x75, 0x65, 0x6e, 0x74, 0x69, 0x61, 0x6c, 0x2f, 0x64, 0x65, 0x6e, 0x73, 0x65, 0x5f, 0x32, 0x2f, 0x4d, 0x61, 0x74, 0x4d, 0x75, 0x6c, 0x3b, 0x73, 0x65, 0x71, 0x75, 0x65, 0x6e, 0x74, 0x69, 0x61, 0x6c, 0x2f, 0x64, 0x65, 0x6e, 0x73, 0x65, 0x5f, 0x32, 0x2f, 0x42, 0x69, 0x61, 0x73, 0x41, 0x64, 0x64, 0x00, 0x00, 0x00, 0x00, 0xc8, 0x90, 0xff, 0xff, 0x00, 0x00, 0x0e, 0x00, 0x14, 0x00, 0x00, 0x00, 0x08, 0x00, 0x0c, 0x00, 0x07, 0x00, 0x10, 0x00, 0x0e, 0x00, 0x00, 0x00, 0x00, 0x00, 0x00, 0x08, 0x1c, 0x00, 0x00, 0x00, 0x10, 0x00, 0x00, 0x00, 0x04, 0x00, 0x00, 0x00, 0x32, 0xff, 0xff, 0xff, 0x00, 0x00, 0x00, 0x01, 0x01, 0x00, 0x00, 0x00, 0x08, 0x00, 0x00, 0x00, 0x03, 0x00, 0x00, 0x00, 0x07, 0x00, 0x00, 0x00, 0x05, 0x00, 0x00, 0x00, 0x02, 0x00, 0x00, 0x00, 0x74, 0x90, 0xff, 0xff, 0x14, 0x00, 0x00, 0x00, 0x09, 0x00, 0x00, 0x00, 0x24, 0x00, 0x00, 0x00, 0x74, 0x00, 0x00, 0x00, 0x10, 0x00, 0x00, 0x00, 0x02, 0x00, 0x00, 0x00, 0x01, 0x00, 0x00, 0x00, 0x32, 0x00, 0x00, 0x00, 0x02, 0x00, 0x00, 0x00, 0xff, 0xff, 0xff, 0xff, 0x32, 0x00, 0x00, 0x00, 0x4c, 0x00, 0x00, 0x00, 0x73, 0x65, 0x71, 0x75, 0x65, 0x6e, 0x74, 0x69, 0x61, 0x6c, 0x2f, 0x64, 0x65, 0x6e, 0x73, 0x65, 0x5f, 0x31, 0x2f, 0x4d, 0x61, 0x74, 0x4d, 0x75, 0x6c, 0x3b, 0x73, 0x65, 0x71, 0x75, 0x65, 0x6e, 0x74, 0x69, 0x61, 0x6c, 0x2f, 0x64, 0x65, 0x6e, 0x73, 0x65, 0x5f, 0x31, 0x2f, 0x52, 0x65, 0x6c, 0x75, 0x3b, 0x73, 0x65, 0x71, 0x75, 0x65, 0x6e, 0x74, 0x69, 0x61, 0x6c, 0x2f, 0x64, 0x65, 0x6e, 0x73, 0x65, 0x5f, 0x31, 0x2f, 0x42, 0x69, 0x61, 0x73, 0x41, 0x64, 0x64, 0x00, 0x00, 0x00, 0x00, 0x94, 0x91, 0xff, 0xff, 0x00, 0x00, 0x0e, 0x00, 0x16, 0x00, 0x00, 0x00, 0x08, 0x00, 0x0c, 0x00, 0x07, 0x00, 0x10, 0x00, 0x0e, 0x00, 0x00, 0x00, 0x00, 0x00, 0x00, 0x08, 0x24, 0x00, 0x00, 0x00, 0x18, 0x00, 0x00, 0x00, 0x0c, 0x00, 0x00, 0x00, 0x00, 0x00, 0x06, 0x00, 0x08, 0x00, 0x07, 0x00, 0x06, 0x00, 0x00, 0x00, 0x00, 0x00, 0x00, 0x01, 0x01, 0x00, 0x00, 0x00, 0x07, 0x00, 0x00, 0x00, 0x03, 0x00, 0x00, 0x00, 0x00, 0x00, 0x00, 0x00, 0x04, 0x00, 0x00, 0x00, 0x03, 0x00, 0x00, 0x00, 0x0c, 0x00, 0x10, 0x00, 0x0b, 0x00, 0x00, 0x00, 0x0c, 0x00, 0x04, 0x00, 0x0c, 0x00, 0x00, 0x00, 0x09, 0x00, 0x00, 0x00, 0x00, 0x00, 0x00, 0x09, 0x01, 0x00, 0x00, 0x00, 0x64, 0x91, 0xff, 0xff, 0x14, 0x00, 0x00, 0x00, 0x08, 0x00, 0x00, 0x00, 0x24, 0x00, 0x00, 0x00, 0x6c, 0x00, 0x00, 0x00, 0x10, 0x00, 0x00, 0x00, 0x02, 0x00, 0x00, 0x00, 0x01, 0x00, 0x00, 0x00, 0x32, 0x00, 0x00, 0x00, 0x02, 0x00, 0x00, 0x00, 0xff, 0xff, 0xff, 0xff, 0x32, 0x00, 0x00, 0x00, 0x46, 0x00, 0x00, 0x00, 0x73, 0x65, 0x71, 0x75, 0x65, 0x6e, 0x74, 0x69, 0x61, 0x6c, 0x2f, 0x64, 0x65, 0x6e, 0x73, 0x65, 0x2f, 0x4d, 0x61, 0x74, 0x4d, 0x75, 0x6c, 0x3b, 0x73, 0x65, 0x71, 0x75, 0x65, 0x6e, 0x74, 0x69, 0x61, 0x6c, 0x2f, 0x64, 0x65, 0x6e, 0x73, 0x65, 0x2f, 0x52, 0x65, 0x6c, 0x75, 0x3b, 0x73, 0x65, 0x71, 0x75, 0x65, 0x6e, 0x74, 0x69, 0x61, 0x6c, 0x2f, 0x64, 0x65, 0x6e, 0x73, 0x65, 0x2f, 0x42, 0x69, 0x61, 0x73, 0x41, 0x64, 0x64, 0x00, 0x00, 0x88, 0x91, 0xff, 0xff, 0x76, 0x92, 0xff, 0xff, 0x04, 0x00, 0x00, 0x00, 0xb0, 0x04, 0x00, 0x00, 0x28, 0x67, 0x3a, 0xbf, 0x87, 0x8f, 0x08, 0xbf, 0xb4, 0x58, 0x29, 0xbe, 0x80, 0x0b, 0xf1, 0x3e, 0xd5, 0x3b, 0xe3, 0xbd, 0x33, 0x63, 0x0a, 0xbe, 0xa4, 0x3c, 0x3b, 0xbf, 0x08, 0x2c, 0x26, 0x3e, 0xd5, 0xa1, 0x95, 0xbe, 0x64, 0xe3, 0x03, 0x3f, 0x7d, 0x65, 0xf7, 0x3d, 0x2a, 0x26, 0xfe, 0x3d, 0x88, 0xc8, 0xfd, 0xbd, 0x29, 0x70, 0x81, 0xbe, 0x41, 0x2b, 0xe2, 0x3e, 0x2e, 0xa0, 0x01, 0xbd, 0x35, 0xc8, 0xfa, 0x3d, 0xf9, 0x94, 0xd8, 0x3e, 0x5f, 0xb4, 0x1b, 0xbe, 0x8b, 0x54, 0x83, 0x3e, 0xf5, 0x0d, 0x84, 0x3d, 0xaa, 0x80, 0x94, 0xbe, 0xf1, 0x6c, 0xba, 0x3e, 0x38, 0x89, 0x88, 0x3e, 0x57, 0x2b, 0x1f, 0xbf, 0xea, 0xfa, 0xb0, 0x3e, 0x0b, 0x13, 0x00, 0x3f, 0x2e, 0xa8, 0xde, 0x3c, 0x20, 0xfa, 0x75, 0x3e, 0xc2, 0x81, 0xde, 0x3c, 0xf0, 0x92, 0x8c, 0xbe, 0x0b, 0xe2, 0xcb, 0xbf, 0xb2, 0xce, 0xd6, 0x3e, 0xbf, 0x2a, 0x29, 0xbf, 0xba, 0xfc, 0x02, 0xbe, 0x32, 0xc0, 0x74, 0xbf, 0x89, 0x72, 0xcb, 0x3c, 0xc7, 0x74, 0xdb, 0x3c, 0x26, 0x05, 0x82, 0x3e, 0x90, 0xe2, 0xaf, 0x3e, 0xd3, 0x72, 0x91, 0xbf, 0x3d, 0xf7, 0x31, 0x3f, 0xfb, 0x27, 0xbc, 0xbd, 0x31, 0xd6, 0xfe, 0xbd, 0x3e, 0x83, 0x98, 0xbd, 0x7c, 0xef, 0xcb, 0xbe, 0x3c, 0xb9, 0xa4, 0xbe, 0xb4, 0x46, 0xe3, 0x3e, 0x11, 0x0a, 0xc4, 0x3e, 0x11, 0xce, 0x6b, 0xbe, 0x9d, 0x95, 0x64, 0xbd, 0x55, 0x8a, 0x43, 0xbe, 0x48, 0x84, 0x2a, 0xbf, 0xce, 0xc4, 0xb5, 0x3e, 0xd7, 0x8c, 0xd2, 0x3e, 0x89, 0xaf, 0xbe, 0xbe, 0xd8, 0x72, 0x15, 0x3e, 0xe1, 0xc1, 0xf1, 0x3e, 0x40, 0xca, 0xe9, 0x3e, 0x18, 0x6d, 0x91, 0xbe, 0x28, 0xf3, 0xae, 0x3e, 0x7d, 0x06, 0x01, 0xbf, 0x58, 0xbe, 0x87, 0x3e, 0x2a, 0x3d, 0xa6, 0x3e, 0x97, 0x52, 0xb7, 0xbd, 0x93, 0x66, 0xa6, 0xbe, 0x83, 0xe6, 0xb1, 0x3e, 0x87, 0x56, 0x96, 0x3e, 0x14, 0xe9, 0x40, 0xbf, 0x85, 0xfe, 0x7b, 0xbe, 0x17, 0xeb, 0x1d, 0x3d, 0x99, 0x7c, 0xbf, 0xbd, 0xe2, 0x9d, 0x44, 0xbc, 0x7a, 0x91, 0x80, 0xbf, 0xd6, 0x1a, 0x9b, 0x3e, 0xa5, 0x40, 0xcb, 0xbd, 0x1c, 0xbc, 0xe3, 0xbe, 0x2f, 0x2f, 0xab, 0x3e, 0x88, 0xe4, 0x29, 0xbf, 0xf9, 0xaa, 0x08, 0x3e, 0xd4, 0x3a, 0xe2, 0x3e, 0xeb, 0xb2, 0x1d, 0xbf, 0x48, 0x96, 0x33, 0xbf, 0x77, 0x81, 0x02, 0x3e, 0x1c, 0x94, 0x00, 0x3f, 0x2e, 0xab, 0x11, 0xbe, 0x9e, 0xc1, 0x3a, 0x3e, 0x13, 0x87, 0xd9, 0x3e, 0xb6, 0x3e, 0x93, 0xbe, 0xf4, 0x6b, 0xc6, 0x3e, 0x9e, 0xb1, 0x8f, 0xbe, 0xea, 0x31, 0x04, 0xbf, 0x34, 0xe8, 0x9d, 0xbe, 0x56, 0xd5, 0xad, 0x3e, 0x0c, 0xb0, 0x3a, 0xbf, 0x30, 0x58, 0xe2, 0xbc, 0xbd, 0x02, 0x35, 0xbc, 0xfb, 0x75, 0x40, 0xbf, 0x3d, 0x64, 0x46, 0xbe, 0x08, 0xf4, 0xd6, 0x3e, 0x81, 0x38, 0x01, 0xbd, 0xf5, 0x6f, 0xb0, 0x3e, 0x65, 0xaa, 0xc2, 0x3e, 0x3c, 0x31, 0x11, 0xbf, 0xb3, 0x80, 0xb7, 0x3e, 0x61, 0x0e, 0x0c, 0x3f, 0x57, 0x44, 0x4a, 0xbe, 0x93, 0x17, 0x45, 0xbd, 0x2f, 0x87, 0x92, 0xbe, 0x4f, 0x21, 0x42, 0xbe, 0x57, 0xbc, 0x51, 0xbc, 0x27, 0xab, 0xb8, 0x3e, 0x35, 0x40, 0xff, 0xbd, 0x70, 0x89, 0xda, 0x3e, 0xe3, 0x71, 0x4c, 0x3e, 0x4a, 0x59, 0xe8, 0xbe, 0x04, 0x01, 0xf3, 0xbe, 0x46, 0xe1, 0x03, 0xbf, 0xe0, 0x24, 0xe4, 0x3e, 0xe8, 0xf1, 0x83, 0x3e, 0x38, 0xac, 0xeb, 0x3e, 0x55, 0x3f, 0xb7, 0xbe, 0x2f, 0x23, 0x3f, 0xbe, 0xa7, 0xc1, 0xa9, 0xbe, 0x91, 0x6f, 0xbc, 0xbe, 0x9d, 0x6c, 0x89, 0x3c, 0x45, 0x0c, 0x37, 0xbf, 0x09, 0x52, 0xcf, 0x3e, 0xe7, 0x13, 0xd7, 0xbe, 0xdb, 0x29, 0x99, 0xbe, 0xfa, 0x0b, 0xe7, 0x3d, 0xc1, 0x24, 0x2a, 0xbf, 0xea, 0xf2, 0x61, 0x3d, 0x5a, 0x55, 0x99, 0x3e, 0xf6, 0xe2, 0xae, 0xbe, 0x66, 0x9b, 0x16, 0x3e, 0xf0, 0x6e, 0x9b, 0xbe, 0x90, 0x23, 0xb7, 0xbe, 0x16, 0x80, 0x8f, 0xbe, 0x4e, 0x14, 0x2a, 0xbf, 0x2f, 0xfb, 0xfb, 0x3e, 0x23, 0x53, 0x17, 0xbf, 0xe1, 0xbd, 0x23, 0x3d, 0x9d, 0xc3, 0x90, 0x3d, 0xee, 0xb7, 0xb8, 0xbe, 0x0f, 0xe4, 0xa6, 0xbe, 0x52, 0x39, 0x99, 0x3e, 0xcc, 0x5b, 0x2e, 0x3d, 0x77, 0xeb, 0xdc, 0xbd, 0x67, 0x48, 0xe8, 0xbe, 0x0f, 0xc4, 0x44, 0xbe, 0x46, 0x85, 0x1b, 0xbd, 0x74, 0x7b, 0x8a, 0x3e, 0x25, 0x30, 0x5c, 0xbf, 0xb6, 0x87, 0x16, 0xbf, 0xe5, 0x7b, 0x42, 0xbf, 0x55, 0xbc, 0x43, 0xbf, 0x97, 0xca, 0xfd, 0xbd, 0x0c, 0x2a, 0x9b, 0x3e, 0xfd, 0x24, 0x34, 0xbf, 0x55, 0x6e, 0x01, 0x3f, 0xb2, 0x58, 0x35, 0x3c, 0x2b, 0x62, 0x83, 0xbe, 0x31, 0x41, 0x51, 0x3f, 0xe7, 0x66, 0x8a, 0xbf, 0xf4, 0x61, 0x0d, 0xbf, 0x92, 0xbc, 0x39, 0xbf, 0xe0, 0xef, 0x46, 0xbf, 0xe4, 0x3c, 0x40, 0x3c, 0xd1, 0x87, 0xd4, 0xbe, 0xc8, 0xe2, 0xe2, 0xbd, 0x5a, 0x03, 0xfb, 0x3e, 0x03, 0x0b, 0x71, 0xbe, 0xd6, 0x62, 0x41, 0x3e, 0x36, 0xcb, 0x67, 0x3e, 0x1d, 0x15, 0x9a, 0x3e, 0x87, 0x51, 0xdd, 0xbe, 0x38, 0x6d, 0x1d, 0x3f, 0x50, 0x3b, 0xea, 0x3d, 0xef, 0xd6, 0x1b, 0x3f, 0x98, 0x94, 0xcd, 0xbe, 0xde, 0xea, 0x81, 0x3e, 0x43, 0xbb, 0x3e, 0x3d, 0xf9, 0x6c, 0x86, 0xbe, 0x00, 0x7c, 0x22, 0xbe, 0x23, 0xab, 0xee, 0x3d, 0xfb, 0x9f, 0x2c, 0x3f, 0x97, 0x7c, 0x24, 0x3d, 0xff, 0x43, 0x82, 0xbe, 0x8c, 0x4a, 0xf0, 0x3e, 0x85, 0xaf, 0xc8, 0x3e, 0xb9, 0xd9, 0x31, 0x3e, 0x50, 0x5a, 0x0d, 0x3f, 0x85, 0xc0, 0x34, 0x3f, 0x47, 0x54, 0xbc, 0x3e, 0x59, 0xdb, 0xa4, 0xbf, 0x6f, 0x06, 0x31, 0xbf, 0xbf, 0x8d, 0xc7, 0x3e, 0x6d, 0x78, 0x83, 0xbf, 0x6b, 0xb2, 0x18, 0xbc, 0x1e, 0x73, 0xbc, 0xbd, 0x51, 0x85, 0x15, 0xbe, 0x3a, 0xfc, 0x6a, 0xbe, 0x5d, 0x19, 0xef, 0x3d, 0xb5, 0x86, 0x7f, 0xbe, 0xfe, 0xca, 0xed, 0x3e, 0x21, 0x7e, 0x7c, 0x3f, 0x79, 0xac, 0x61, 0x3e, 0x43, 0xa9, 0x91, 0xbe, 0xf2, 0xb1, 0x83, 0x3f, 0xb9, 0xfd, 0xbc, 0xbe, 0x5b, 0xe8, 0xa5, 0x3e, 0x2a, 0x67, 0x62, 0x3e, 0x2f, 0x75, 0x26, 0xbf, 0x2d, 0x23, 0x17, 0xbe, 0x5e, 0x9e, 0x0c, 0x3f, 0xaa, 0xb5, 0x2e, 0x3f, 0x2a, 0x59, 0x45, 0x3f, 0x7c, 0xa9, 0xe8, 0xbe, 0x9b, 0x72, 0x5d, 0xbf, 0xf2, 0x2c, 0x53, 0xbf, 0x87, 0x18, 0x8a, 0xbf, 0x12, 0xa5, 0xd2, 0xbe, 0x9e, 0x95, 0xb7, 0x3e, 0x92, 0xe4, 0x7b, 0xbe, 0x34, 0xe2, 0x53, 0xbf, 0x57, 0x4b, 0x01, 0x3f, 0x03, 0xd4, 0xc9, 0xbe, 0x4c, 0xb1, 0x00, 0xbf, 0x49, 0xd6, 0x1f, 0xbf, 0xdf, 0x19, 0x00, 0xbe, 0x20, 0x54, 0xb4, 0x3e, 0x4f, 0xc3, 0x82, 0xbe, 0x95, 0x4b, 0x28, 0xbf, 0x2d, 0x02, 0xf4, 0x3e, 0x7c, 0xce, 0xa0, 0xbe, 0xe8, 0x75, 0x8b, 0xbf, 0x8a, 0x42, 0x31, 0x3d, 0x33, 0x68, 0x37, 0x3e, 0x58, 0x3f, 0xb7, 0xbe, 0x15, 0xea, 0x57, 0x3e, 0xad, 0x27, 0x8a, 0x3e, 0xce, 0x22, 0x84, 0xbe, 0x00, 0x7b, 0x6f, 0xbf, 0x2c, 0x88, 0x1f, 0x3c, 0x5a, 0x0b, 0x1d, 0x3f, 0x03, 0xe4, 0x8e, 0x3e, 0x47, 0x98, 0x89, 0xbf, 0x8d, 0x7b, 0x39, 0x3f, 0xbe, 0x20, 0x93, 0x3e, 0xc0, 0xc2, 0xa2, 0x3e, 0xa6, 0x1d, 0x42, 0x3d, 0xec, 0x1a, 0x81, 0xbe, 0x6d, 0xa1, 0x11, 0xbf, 0x43, 0x5a, 0xee, 0xbc, 0x25, 0x13, 0x00, 0xbe, 0x12, 0x75, 0x1a, 0xbe, 0x25, 0xb8, 0x19, 0xbf, 0x85, 0x0e, 0x02, 0x3f, 0x83, 0x85, 0xc0, 0xbe, 0xc9, 0xec, 0x02, 0x3f, 0xf1, 0xa1, 0x04, 0xbf, 0x9c, 0xbf, 0xd4, 0xbe, 0x0f, 0xd2, 0x80, 0x3e, 0xe1, 0x50, 0x2a, 0xbf, 0x9a, 0xdc, 0x55, 0xbe, 0xba, 0x0b, 0xdf, 0x3c, 0xbc, 0x08, 0xa5, 0xbd, 0x1c, 0xe5, 0xce, 0x3d, 0xa7, 0xf2, 0xfd, 0xbe, 0x90, 0x46, 0xb4, 0x3e, 0xd3, 0xbc, 0xaa, 0x3d, 0x64, 0x5a, 0xf7, 0x3e, 0x75, 0x7e, 0xad, 0xbe, 0x49, 0x8c, 0x85, 0x3d, 0xf5, 0x09, 0x54, 0xbe, 0x7b, 0x05, 0xf9, 0xbe, 0xbe, 0x15, 0xac, 0xbe, 0xf8, 0x6f, 0x05, 0x3f, 0x6c, 0x26, 0xa7, 0x3e, 0xe9, 0xd7, 0x0d, 0x3f, 0xcd, 0x4c, 0xea, 0xbe, 0xe4, 0xde, 0x88, 0x3e, 0xb7, 0xb5, 0x00, 0x3e, 0x18, 0x04, 0xf7, 0xbd, 0x71, 0x84, 0xc4, 0xbe, 0x44, 0x5e, 0x17, 0x3e, 0xdb, 0x1b, 0xdf, 0xbe, 0x6d, 0x10, 0x33, 0xbe, 0xeb, 0xaf, 0x2f, 0x3e, 0xa8, 0xd8, 0x95, 0xbe, 0xa7, 0x98, 0x4b, 0xbf, 0xc7, 0x92, 0xd5, 0x3d, 0x98, 0x78, 0x49, 0xbe, 0x5c, 0xfa, 0x64, 0x3e, 0xd1, 0x7e, 0x07, 0x3f, 0x5e, 0xdf, 0xd1, 0x3e, 0x57, 0x3a, 0x06, 0xbf, 0x66, 0x8b, 0x73, 0xbe, 0x73, 0xc5, 0x11, 0x3e, 0x06, 0x97, 0xff, 0xff, 0x10, 0x00, 0x00, 0x00, 0x07, 0x00, 0x00, 0x00, 0x14, 0x00, 0x00, 0x00, 0x30, 0x00, 0x00, 0x00, 0x02, 0x00, 0x00, 0x00, 0x06, 0x00, 0x00, 0x00, 0x32, 0x00, 0x00, 0x00, 0x19, 0x00, 0x00, 0x00, 0x73, 0x65, 0x71, 0x75, 0x65, 0x6e, 0x74, 0x69, 0x61, 0x6c, 0x2f, 0x64, 0x65, 0x6e, 0x73, 0x65, 0x5f, 0x32, 0x2f, 0x4d, 0x61, 0x74, 0x4d, 0x75, 0x6c, 0x00, 0x00, 0x00, 0x88, 0x96, 0xff, 0xff, 0x76, 0x97, 0xff, 0xff, 0x04, 0x00, 0x00, 0x00, 0x10, 0x27, 0x00, 0x00, 0xdb, 0xeb, 0xb2, 0x3d, 0x15, 0x6f, 0x0e, 0x3d, 0x87, 0x36, 0xbd, 0x3e, 0xe3, 0x25, 0xe1, 0x3d, 0x92, 0xb2, 0x86, 0x3e, 0x98, 0x62, 0xf9, 0x3e, 0xe7, 0x9c, 0x10, 0xbe, 0x7d, 0xa5, 0x6c, 0xbc, 0x08, 0x37, 0x20, 0xbd, 0x40, 0x73, 0xe6, 0xbd, 0x07, 0xa1, 0xa4, 0xbe, 0xd8, 0x17, 0x61, 0x3d, 0xa8, 0xc3, 0xc6, 0x3e, 0x66, 0x26, 0x87, 0x3e, 0x64, 0x55, 0x44, 0x3e, 0x30, 0x51, 0x65, 0x3e, 0xf1, 0x7a, 0x1d, 0xbd, 0x47, 0x6b, 0x4b, 0xbe, 0xbe, 0xdb, 0x96, 0xbe, 0x2b, 0x5b, 0x75, 0xbe, 0x35, 0x5a, 0x6c, 0x3e, 0xbb, 0x69, 0xef, 0xbe, 0xe3, 0xe9, 0x4d, 0xba, 0x2f, 0x36, 0x0d, 0x3d, 0x8d, 0x3f, 0x23, 0x3e, 0x76, 0x9a, 0x7c, 0x3c, 0x36, 0x24, 0x14, 0xbd, 0x5f, 0x0a, 0xb8, 0x3e, 0xb3, 0xbc, 0x0f, 0x3e, 0x54, 0xb6, 0xb9, 0xbd, 0x54, 0x6e, 0x62, 0xbc, 0x8d, 0x93, 0x99, 0x3d, 0xec, 0xd5, 0x5e, 0xbd, 0x18, 0x61, 0x1f, 0x3e, 0x57, 0x7e, 0xc7, 0xbd, 0xca, 0x20, 0x4e, 0x3d, 0x09, 0x75, 0x50, 0xbd, 0xaa, 0xf2, 0x34, 0x3e, 0xdf, 0xae, 0xcf, 0x3e, 0xdd, 0xab, 0x39, 0xbe, 0x72, 0x15, 0x44, 0xbd, 0x24, 0xb0, 0x01, 0xbe, 0x11, 0xc6, 0xeb, 0xbd, 0xd0, 0xf8, 0x92, 0x3e, 0x43, 0xf4, 0xd8, 0x3c, 0xf4, 0x3c, 0x3f, 0x3e, 0xb9, 0xc8, 0xdb, 0x3c, 0xd9, 0x3f, 0x70, 0x3e, 0xd0, 0x1b, 0xdc, 0x3e, 0x34, 0x0d, 0xb7, 0x3d, 0xb6, 0x73, 0x09, 0x3f, 0x8b, 0x12, 0xb2, 0xbe, 0x27, 0x1b, 0x7e, 0x3e, 0xef, 0xe4, 0xbb, 0xbe, 0xcc, 0x58, 0x44, 0x3e, 0x1f, 0x30, 0x9d, 0x3e, 0x2a, 0x5c, 0xac, 0xbe, 0x23, 0xc4, 0x21, 0x3e, 0xf9, 0x89, 0x6d, 0x3e, 0xc0, 0xd8, 0xdf, 0xbc, 0x7d, 0x8e, 0x39, 0x3e, 0x5f, 0x38, 0x28, 0x3e, 0x22, 0xa1, 0x8f, 0x3d, 0x56, 0x96, 0xca, 0x3e, 0x78, 0x0e, 0x6b, 0x3e, 0x3d, 0x11, 0xfc, 0x3d, 0xbb, 0x5e, 0xa9, 0x3e, 0x85, 0x17, 0xa2, 0xbe, 0x0b, 0xd8, 0x37, 0xbe, 0x5e, 0xe7, 0x55, 0xbc, 0x17, 0xc1, 0x8a, 0xbe, 0xd8, 0x8d, 0xa3, 0x3d, 0x61, 0x70, 0xc1, 0x3e, 0xb4, 0x0b, 0xb8, 0xbd, 0xf1, 0x72, 0x2e, 0x3e, 0x81, 0x77, 0x53, 0xbe, 0xbf, 0x4b, 0x22, 0xbe, 0x58, 0x11, 0xbe, 0x3e, 0x6e, 0x23, 0x90, 0x3e, 0xf4, 0x67, 0x83, 0x3c, 0x70, 0x0a, 0x9e, 0x3e, 0x43, 0xaf, 0x8c, 0xbc, 0xb1, 0x6d, 0x4e, 0x3c, 0xa1, 0x7f, 0x50, 0xbd, 0xbc, 0x99, 0xf8, 0x3c, 0x7c, 0x80, 0x14, 0xbd, 0x08, 0x44, 0x0a, 0xbe, 0xcd, 0xf1, 0x1f, 0x3b, 0xb6, 0x27, 0x0a, 0x3e, 0x60, 0x82, 0xf0, 0xbd, 0x72, 0x4e, 0x9f, 0x3e, 0x4c, 0x04, 0xa9, 0xbc, 0xd2, 0x82, 0xcd, 0x3c, 0xa5, 0xb8, 0x23, 0xbd, 0xc8, 0xf8, 0xe8, 0xbc, 0xb1, 0xc0, 0x88, 0x3e, 0x3b, 0xec, 0xa1, 0x3e, 0x5c, 0xb7, 0x31, 0x3e, 0x9e, 0x02, 0x0c, 0xbd, 0xdd, 0x59, 0x8e, 0x3b, 0xbb, 0x45, 0xc1, 0x3e, 0x8f, 0x2a, 0x8e, 0xbe, 0xc3, 0x1e, 0x9f, 0x3d, 0x29, 0x47, 0xf9, 0x3d, 0xb9, 0xce, 0x4a, 0x3d, 0xd3, 0xaf, 0xba, 0xbe, 0xb3, 0x13, 0x4d, 0xbe, 0x8d, 0xa9, 0x31, 0xbc, 0x89, 0xea, 0x22, 0x3d, 0xbe, 0xc5, 0x64, 0x3d, 0x6c, 0xdb, 0xe4, 0x3e, 0x6b, 0x5f, 0x12, 0x3e, 0x75, 0x50, 0x7f, 0x3e, 0x73, 0xfa, 0xa5, 0x3d, 0x23, 0x55, 0xc2, 0xbd, 0x05, 0xc4, 0xfc, 0x3c, 0x48, 0x06, 0x09, 0xbd, 0x16, 0x90, 0x20, 0xbe, 0x4e, 0xd2, 0x22, 0xbe, 0x18, 0xcb, 0x64, 0xbe, 0x1d, 0x47, 0x87, 0xbe, 0xd7, 0x7d, 0x9b, 0x3e, 0x7e, 0x9e, 0xb9, 0x3e, 0xf8, 0x72, 0x8d, 0x3e, 0xeb, 0xc4, 0xa8, 0x3e, 0xaa, 0x01, 0xe8, 0xbe, 0x9a, 0xa3, 0x72, 0xbe, 0xa4, 0x7b, 0x7d, 0xbe, 0xf2, 0xb9, 0x9f, 0xbd, 0x1e, 0xbf, 0x18, 0x3e, 0xad, 0x08, 0x81, 0x3e, 0x87, 0x12, 0xe6, 0xbc, 0xa0, 0xe2, 0x2d, 0x3d, 0x62, 0x19, 0xb6, 0xbe, 0x7e, 0x05, 0x11, 0x3e, 0x3b, 0x7a, 0x1c, 0xbe, 0x88, 0x26, 0xdb, 0x3c, 0xe2, 0x83, 0x77, 0xbe, 0x04, 0x15, 0xf1, 0x3e, 0x63, 0xbf, 0x9c, 0x3e, 0x9b, 0xd7, 0x8d, 0x3e, 0x3e, 0x98, 0xf6, 0x3c, 0x7b, 0xb8, 0x03, 0x3e, 0xcc, 0x97, 0xce, 0xbb, 0xb1, 0x53, 0x6d, 0xbb, 0x95, 0x7a, 0xd1, 0x3e, 0xd6, 0x69, 0x36, 0x3e, 0x4e, 0xcd, 0x30, 0x3e, 0x01, 0xf6, 0xb0, 0x3e, 0xff, 0x50, 0x79, 0xbe, 0x17, 0x39, 0x1a, 0xbf, 0x5c, 0x4d, 0x9e, 0x3e, 0x09, 0xe6, 0xc0, 0xbe, 0xa7, 0x0e, 0x57, 0x3e, 0x5f, 0x6e, 0xbf, 0xbd, 0x4a, 0xd7, 0x5d, 0xbb, 0x74, 0x86, 0xc8, 0x3e, 0x1b, 0xe1, 0x41, 0xbe, 0x90, 0xb9, 0x16, 0xbe, 0x0f, 0x3f, 0xed, 0xbe, 0x61, 0xf7, 0xb9, 0xbe, 0xcd, 0xd8, 0xfd, 0xbe, 0xc8, 0x97, 0x86, 0x3d, 0x5e, 0x71, 0xbc, 0xbe, 0x5c, 0xaa, 0x31, 0x3d, 0x90, 0x5a, 0x6e, 0xbd, 0xed, 0x5c, 0x93, 0x3e, 0x75, 0x80, 0xf0, 0x3e, 0x7f, 0x1b, 0xc4, 0x3e, 0xd6, 0x44, 0x9b, 0x3e, 0x04, 0xc4, 0x80, 0x3e, 0xe1, 0x35, 0x58, 0xbd, 0x01, 0xd0, 0xb9, 0x3d, 0xde, 0x29, 0x3e, 0xbe, 0x52, 0xa6, 0xf1, 0xbe, 0xc5, 0x91, 0xfe, 0x3e, 0x12, 0xe7, 0x95, 0xbd, 0x4d, 0xce, 0x82, 0xbe, 0xcf, 0xc5, 0x19, 0x3d, 0x83, 0x87, 0x56, 0xbe, 0x51, 0xe3, 0xd2, 0xbd, 0x68, 0xc9, 0x99, 0x3e, 0x9b, 0xcd, 0xef, 0xbe, 0xda, 0xd0, 0x5a, 0x3e, 0x02, 0xff, 0xbe, 0xbe, 0x63, 0x4c, 0x9c, 0x3e, 0xe9, 0x24, 0x27, 0xbd, 0x2c, 0xb6, 0x05, 0x3e, 0x4c, 0xea, 0xf8, 0xbe, 0x7d, 0xb2, 0x47, 0x3e, 0xaa, 0x21, 0x72, 0xbe, 0xae, 0x7c, 0xe1, 0xbc, 0xe6, 0x63, 0x95, 0x3d, 0xa4, 0xd9, 0xb7, 0xbe, 0x1d, 0xff, 0x87, 0xbe, 0xfa, 0x5c, 0xa6, 0xbe, 0xd9, 0xb2, 0xff, 0x3c, 0x8a, 0x1f, 0x33, 0x3e, 0xdc, 0x27, 0x84, 0xbd, 0xa4, 0x6e, 0x4f, 0x3e, 0xe8, 0xd4, 0x6e, 0x3e, 0x4d, 0xd5, 0x9e, 0x3e, 0xe3, 0xb3, 0xbc, 0xbd, 0x77, 0xa8, 0x08, 0xbc, 0x1b, 0x88, 0x26, 0xbd, 0x5c, 0x40, 0xeb, 0x3e, 0xd3, 0xb6, 0x05, 0xbf, 0x01, 0xb1, 0xbc, 0xbd, 0x63, 0x45, 0xda, 0xbd, 0xdd, 0xc6, 0xbe, 0x3c, 0x76, 0xa7, 0x36, 0x3d, 0xcf, 0x58, 0x28, 0xbd, 0x1d, 0x58, 0x64, 0x3e, 0x37, 0xac, 0x93, 0xbd, 0xde, 0x90, 0xc0, 0x3e, 0xdc, 0xbd, 0x9b, 0xbe, 0xf6, 0x2c, 0x9a, 0x3e, 0xc4, 0x9b, 0x67, 0xbd, 0xf8, 0xe0, 0x85, 0xbd, 0xe0, 0x4e, 0x1a, 0xbe, 0x00, 0x54, 0xba, 0x3e, 0xe0, 0x1b, 0x5f, 0xbe, 0xb7, 0xf2, 0x11, 0x3c, 0xb1, 0x51, 0xc0, 0x3e, 0x62, 0xd0, 0xb6, 0xbd, 0x08, 0x24, 0x97, 0x3d, 0x27, 0xfb, 0xbd, 0xbe, 0xdd, 0x19, 0x01, 0x3e, 0xdb, 0xa8, 0x33, 0xbc, 0xc5, 0xc0, 0xa6, 0x3e, 0x5b, 0xba, 0xfd, 0xbb, 0x74, 0x1e, 0xd6, 0xbd, 0x61, 0x6b, 0x9b, 0xbe, 0xf7, 0x5f, 0x11, 0x3e, 0x00, 0x35, 0xa3, 0x3e, 0xcf, 0x6a, 0xae, 0xbe, 0x42, 0x8d, 0x92, 0xbc, 0x7e, 0x90, 0x14, 0x3e, 0x8b, 0x19, 0x97, 0x3e, 0x19, 0xed, 0xeb, 0xbd, 0x99, 0x0c, 0x20, 0xbd, 0xae, 0x34, 0x33, 0x3e, 0xaa, 0x35, 0xca, 0x3e, 0xa1, 0x55, 0xff, 0xbe, 0x83, 0x3f, 0xaf, 0x3e, 0x93, 0xc1, 0x57, 0x3e, 0x97, 0x4b, 0xf9, 0xbd, 0xe9, 0x7b, 0xce, 0xbe, 0x75, 0x7c, 0xdc, 0x3e, 0xf2, 0x78, 0x90, 0x3e, 0x82, 0xc1, 0x9e, 0x3e, 0x8d, 0x94, 0x0c, 0xbf, 0x5e, 0xf1, 0x08, 0xbe, 0xc4, 0xd8, 0x2d, 0xbf, 0x50, 0x59, 0xae, 0xbd, 0x5f, 0x41, 0xa8, 0x3e, 0x97, 0xa1, 0x74, 0xbe, 0x46, 0xd9, 0x73, 0xbd, 0x73, 0x84, 0xdb, 0x3e, 0x91, 0x7f, 0x8d, 0x3e, 0xea, 0x86, 0xd3, 0x3e, 0x05, 0x54, 0x9b, 0xbe, 0x5d, 0xee, 0x16, 0x3e, 0xa6, 0x33, 0xf0, 0x3c, 0x04, 0xaa, 0x16, 0x3e, 0x1c, 0xc2, 0x72, 0xbc, 0x79, 0x91, 0x4d, 0xbe, 0x51, 0x46, 0x14, 0xbc, 0x84, 0x4b, 0xaa, 0x3e, 0x62, 0x96, 0xda, 0xbd, 0x54, 0xbf, 0x4e, 0xbe, 0x8d, 0x68, 0xe6, 0x3d, 0xc0, 0xb6, 0xe0, 0xbe, 0xe9, 0x97, 0xac, 0x3e, 0x0b, 0xbb, 0x20, 0xbe, 0x0b, 0xfd, 0x56, 0x3e, 0x2f, 0xef, 0x1c, 0x3e, 0xee, 0x46, 0xb7, 0xbe, 0x33, 0xb9, 0x9c, 0x3e, 0xe8, 0x3b, 0x38, 0x3d, 0xef, 0x84, 0x99, 0x3e, 0x1f, 0x8e, 0x02, 0x3b, 0x66, 0x53, 0x34, 0xbc, 0x84, 0x01, 0x1c, 0xbe, 0xcc, 0x52, 0x81, 0x3b, 0xd6, 0x79, 0xae, 0x3e, 0x20, 0xac, 0x14, 0xbd, 0xae, 0xa4, 0x91, 0xbe, 0x66, 0xea, 0xf5, 0x3e, 0x44, 0x11, 0x9f, 0xbd, 0xe6, 0x91, 0x30, 0x3e, 0x05, 0xa1, 0x46, 0x3e, 0xb0, 0x0d, 0x55, 0xbc, 0x4f, 0x01, 0x27, 0x3e, 0x4a, 0xed, 0x0f, 0x3d, 0x76, 0x49, 0x78, 0xbd, 0x0b, 0xa6, 0xd0, 0xbe, 0x8a, 0x00, 0x8c, 0xbd, 0xf1, 0xc8, 0xb2, 0x3d, 0x9e, 0xc8, 0x0d, 0xbf, 0x88, 0x99, 0xd3, 0xbe, 0xc3, 0xea, 0x46, 0xbd, 0xd5, 0x12, 0x02, 0xbe, 0xfc, 0x4c, 0xa9, 0x3e, 0x59, 0xa6, 0x24, 0xbf, 0x0f, 0xcb, 0x80, 0x3e, 0xa6, 0xd3, 0x21, 0x3e, 0x52, 0x43, 0x86, 0xbe, 0x51, 0x27, 0x4f, 0xbe, 0x49, 0x4d, 0x1b, 0xbe, 0x87, 0xcf, 0xd8, 0x3b, 0xed, 0x52, 0xef, 0x3e, 0xdc, 0x07, 0x8a, 0xbe, 0x22, 0x43, 0xde, 0xbe, 0xc2, 0x76, 0xc3, 0xbe, 0x1c, 0x78, 0x7a, 0xbe, 0x1b, 0xeb, 0xe1, 0xbe, 0xe9, 0x91, 0x92, 0x3e, 0x03, 0xbc, 0xd6, 0xbe, 0x94, 0xb2, 0x46, 0xbe, 0x4e, 0xb0, 0x88, 0xbe, 0x04, 0xf3, 0x8e, 0x3e, 0xd9, 0x32, 0x4a, 0xbe, 0x09, 0x3b, 0x98, 0xbd, 0xc8, 0x16, 0x5f, 0xbf, 0x42, 0x86, 0x83, 0xbe, 0x00, 0x7f, 0x1f, 0x3e, 0x9b, 0x5a, 0x95, 0xbe, 0x9e, 0xf3, 0x37, 0x3e, 0x21, 0x4d, 0xae, 0x3d, 0x2d, 0x21, 0x65, 0xbf, 0xff, 0x54, 0x31, 0xbe, 0x0f, 0x9a, 0x76, 0x3d, 0xbc, 0xeb, 0x76, 0x3e, 0xc5, 0x8f, 0x2d, 0xbd, 0x10, 0x26, 0x42, 0xbe, 0x8b, 0x98, 0xcd, 0xbc, 0x93, 0x43, 0xfc, 0x3e, 0x31, 0xd7, 0xbc, 0xbd, 0xf2, 0xca, 0x1d, 0xbe, 0x78, 0x7d, 0xab, 0xbd, 0x42, 0xd5, 0x2f, 0x3f, 0x1c, 0x7e, 0xe4, 0x3e, 0x67, 0xbb, 0x71, 0x3e, 0xfa, 0x8f, 0xf0, 0xbe, 0xfb, 0xa5, 0xbf, 0xbe, 0xeb, 0x12, 0x76, 0x3e, 0x28, 0x5b, 0x31, 0xbf, 0xb1, 0xc3, 0x8e, 0x3e, 0x01, 0xf5, 0xb9, 0x3e, 0x0c, 0x8a, 0x2a, 0x3e, 0xfc, 0x34, 0x13, 0x3e, 0x0f, 0xd5, 0x28, 0xbe, 0xa7, 0x9e, 0x47, 0x3b, 0x36, 0xdd, 0x7b, 0xbe, 0x79, 0xe2, 0x22, 0x3e, 0x02, 0xc5, 0x54, 0x3e, 0xfe, 0x7b, 0x76, 0x3e, 0xaf, 0x6a, 0xd1, 0xbe, 0x62, 0xad, 0xc4, 0xbe, 0xca, 0x7d, 0x2d, 0xbe, 0x22, 0x48, 0xeb, 0xbe, 0xee, 0x3b, 0x20, 0x3d, 0x22, 0x9f, 0xaf, 0xbe, 0xed, 0xd3, 0x35, 0x3e, 0x16, 0xbf, 0x05, 0x3e, 0x64, 0x16, 0x83, 0x3e, 0x47, 0xd2, 0x8d, 0x3e, 0xfe, 0xbb, 0xa4, 0x3e, 0x52, 0xa3, 0x3e, 0xbd, 0xd8, 0x27, 0xb3, 0x3e, 0x7b, 0x63, 0xc2, 0xbe, 0xc8, 0x53, 0x38, 0x3e, 0x96, 0x77, 0x36, 0x3b, 0x6d, 0x8d, 0x9f, 0xbe, 0xdd, 0x7b, 0x83, 0x3e, 0x00, 0xa4, 0x80, 0x3d, 0xb1, 0x6c, 0x40, 0x3d, 0xf2, 0x6d, 0x9b, 0xbe, 0x7b, 0x0e, 0x81, 0xbe, 0x1c, 0xa5, 0x80, 0xbe, 0x7b, 0xa7, 0x50, 0x3e, 0xd4, 0x2a, 0x03, 0x3d, 0x94, 0xc7, 0x5c, 0xbd, 0x4f, 0xdc, 0x3e, 0xbc, 0xab, 0x6a, 0x9e, 0xbe, 0x13, 0x91, 0x38, 0xbe, 0xbe, 0xe2, 0x97, 0x3e, 0x4f, 0x4f, 0xef, 0xbe, 0xdb, 0xc6, 0x50, 0xbe, 0x32, 0xae, 0x31, 0xbe, 0x98, 0x81, 0x00, 0xbe, 0x9f, 0x72, 0x77, 0x3e, 0xf7, 0xbc, 0x99, 0xbe, 0xd0, 0x00, 0x3b, 0xbd, 0x23, 0xb6, 0x50, 0xbe, 0x11, 0xd4, 0x4e, 0x3d, 0xd5, 0x74, 0x6f, 0xbe, 0xc6, 0x7b, 0x45, 0x3e, 0xde, 0x14, 0xa3, 0x3c, 0xbb, 0xd1, 0xa5, 0x3e, 0x96, 0x2c, 0xb2, 0x3e, 0x41, 0xea, 0x2c, 0x3e, 0x43, 0x73, 0x2c, 0x3e, 0x3a, 0xab, 0x7b, 0x3e, 0x52, 0xfb, 0x81, 0xbe, 0xb0, 0x0c, 0x0b, 0x3e, 0x42, 0xb4, 0xcf, 0x3e, 0x0e, 0x38, 0xa7, 0xbd, 0xb9, 0x83, 0xaa, 0x3d, 0x22, 0xb6, 0x70, 0x3e, 0xda, 0x69, 0xa7, 0x3e, 0x58, 0x15, 0x3b, 0xbd, 0x2f, 0x00, 0x8b, 0x3e, 0x6e, 0x4b, 0xc2, 0x3e, 0xb7, 0xf6, 0xb5, 0xbd, 0x95, 0x00, 0xe2, 0xbd, 0xdf, 0x36, 0xa9, 0x3d, 0xc2, 0x13, 0x9d, 0xbc, 0x80, 0x31, 0x6f, 0x3d, 0x5c, 0xd4, 0xb5, 0xbd, 0xde, 0xb4, 0xc2, 0xbd, 0xea, 0xb3, 0x68, 0x3e, 0x34, 0x72, 0xfd, 0xbd, 0xb7, 0x41, 0x25, 0x3f, 0x90, 0xb6, 0x31, 0xbe, 0x3a, 0xe9, 0x07, 0x3e, 0xd0, 0xce, 0xe0, 0x3d, 0xb0, 0x3a, 0x84, 0x3e, 0x70, 0xfe, 0x1d, 0xbe, 0xf2, 0x58, 0x23, 0xbe, 0x8d, 0x09, 0x76, 0xbe, 0xf3, 0x7d, 0x84, 0xbd, 0x74, 0x99, 0xab, 0xbd, 0xfb, 0x97, 0xae, 0xbd, 0xb1, 0xbe, 0x5e, 0xbe, 0xd0, 0x5d, 0x4d, 0x3e, 0x55, 0x49, 0xa6, 0xbe, 0xc4, 0x46, 0xc0, 0x3e, 0x9d, 0xc4, 0xc6, 0xbe, 0xad, 0x82, 0xce, 0x3d, 0x6e, 0xc5, 0x01, 0xbe, 0x7a, 0x21, 0xbd, 0xbe, 0xf5, 0x1c, 0x5d, 0x3e, 0x2d, 0xff, 0xb7, 0x3d, 0x95, 0x32, 0x01, 0x3f, 0xb4, 0xe7, 0xd7, 0x3e, 0x0f, 0x25, 0x97, 0x3c, 0xf1, 0xc7, 0x0e, 0xbf, 0x15, 0x71, 0x81, 0x3e, 0x22, 0xed, 0xc8, 0xbd, 0x9d, 0xc5, 0xc5, 0x3e, 0x02, 0xc9, 0x87, 0xbe, 0x23, 0x17, 0x50, 0x3c, 0x5b, 0x4e, 0x3d, 0xbe, 0x3a, 0xb7, 0x2d, 0x3e, 0x43, 0x30, 0xab, 0xbe, 0xf0, 0x73, 0xe7, 0x3d, 0xcc, 0x9d, 0xa1, 0xbd, 0xb0, 0x59, 0x31, 0xbd, 0x87, 0xed, 0x01, 0xbf, 0x6f, 0x8f, 0x79, 0x3e, 0x9f, 0xf5, 0x8c, 0xbd, 0xfa, 0x27, 0xaf, 0x3e, 0xaa, 0xb6, 0x87, 0xbe, 0x51, 0xb9, 0x86, 0x3d, 0x22, 0xa8, 0x46, 0x3e, 0x2c, 0x99, 0x92, 0x3e, 0x0a, 0x1b, 0xcd, 0xbd, 0x70, 0x7b, 0x10, 0xbf, 0x5b, 0x5e, 0xc7, 0xbe, 0xb5, 0x87, 0xd5, 0xbe, 0x1f, 0x95, 0x11, 0xbd, 0xab, 0xab, 0x93, 0xbe, 0x40, 0xb7, 0xc9, 0x3d, 0x64, 0x5a, 0x5a, 0xbe, 0xfe, 0xe3, 0x83, 0x3e, 0xe7, 0x21, 0x5d, 0xbf, 0x5e, 0x33, 0xe9, 0x3d, 0x9b, 0xac, 0x8e, 0x3e, 0xc3, 0x2b, 0xdc, 0xbd, 0xf2, 0x36, 0x2c, 0x3f, 0xfd, 0x7a, 0x16, 0x3d, 0xc8, 0x89, 0xbc, 0xbc, 0xc9, 0xc4, 0xcc, 0x3d, 0xd4, 0x0a, 0x59, 0x3e, 0x55, 0xeb, 0xd1, 0x3e, 0x38, 0x10, 0xf1, 0x3d, 0xff, 0x0e, 0x07, 0xbd, 0xf6, 0xf3, 0x86, 0xbc, 0x18, 0x15, 0x22, 0xbe, 0x9a, 0x7e, 0xc3, 0xbe, 0xd6, 0x50, 0xa0, 0x3e, 0x97, 0xa2, 0x90, 0x3c, 0xa2, 0x50, 0x61, 0x3b, 0x68, 0x17, 0x1e, 0xbf, 0x31, 0x9c, 0x10, 0xbf, 0xc3, 0xa4, 0x9e, 0xbe, 0x8a, 0x6d, 0xb9, 0xbd, 0x2a, 0x25, 0xd7, 0x3d, 0x44, 0x29, 0xbf, 0x3e, 0x47, 0xdb, 0xa1, 0x3e, 0xa2, 0x9e, 0xbd, 0x3e, 0xa0, 0xb5, 0xde, 0x3e, 0xff, 0xc0, 0xed, 0x3e, 0x48, 0xa8, 0x10, 0x3d, 0x26, 0xae, 0x27, 0x3e, 0x0c, 0x40, 0x8c, 0x3d, 0xbb, 0xec, 0x27, 0xbe, 0x79, 0x9a, 0x13, 0x3d, 0x4a, 0x01, 0x98, 0xbe, 0x24, 0x71, 0x8d, 0x3e, 0x4d, 0xf8, 0x19, 0x3e, 0x28, 0xc5, 0x06, 0x3f, 0x82, 0x85, 0xca, 0x3d, 0x13, 0x1a, 0xc9, 0xbb, 0xb7, 0x16, 0x50, 0xbe, 0xef, 0x01, 0x33, 0xbd, 0x4f, 0x22, 0xc8, 0xbd, 0xec, 0x71, 0xd9, 0x3e, 0x68, 0xb1, 0xc5, 0x3d, 0x40, 0xfc, 0x1b, 0x3e, 0x6b, 0x1f, 0x25, 0x3f, 0xcc, 0x18, 0x3c, 0x3e, 0xbb, 0x7b, 0x71, 0x3e, 0xce, 0xd6, 0x5e, 0xbd, 0x1b, 0x33, 0xe0, 0xbe, 0x4e, 0xfa, 0x79, 0xbd, 0x7e, 0x64, 0x63, 0xbd, 0x78, 0x40, 0x93, 0xbc, 0x31, 0xd6, 0x96, 0xbe, 0x2a, 0x80, 0x48, 0x3c, 0xdf, 0x17, 0x20, 0xbd, 0x6c, 0x50, 0x3e, 0xbf, 0xea, 0x58, 0x28, 0x3e, 0x05, 0xe8, 0xcf, 0xbe, 0x8c, 0xec, 0xb0, 0xbd, 0x84, 0x29, 0xdc, 0xbe, 0x13, 0x1b, 0x10, 0xbd, 0x63, 0xf2, 0x85, 0xbd, 0xd6, 0xe5, 0xea, 0x3e, 0xf0, 0x7a, 0xa5, 0xbd, 0x1b, 0x08, 0x5e, 0xbe, 0x8c, 0x45, 0x81, 0x3d, 0x44, 0x3f, 0x7c, 0x3e, 0x56, 0xd3, 0x9f, 0x3d, 0xd6, 0xee, 0x34, 0x3e, 0x13, 0x0d, 0xeb, 0xba, 0x64, 0x23, 0x81, 0xbe, 0xcc, 0x26, 0x0d, 0x3c, 0xf4, 0x0c, 0xdc, 0x3d, 0x00, 0xcc, 0x86, 0xbe, 0x66, 0xbe, 0xb1, 0xbe, 0xa6, 0x13, 0x89, 0xbe, 0xd6, 0x1e, 0x6c, 0x3d, 0xaa, 0xe8, 0x30, 0xbe, 0xd4, 0x2d, 0x39, 0x3e, 0xc6, 0xcc, 0x64, 0xbe, 0xfa, 0x3a, 0x41, 0x3e, 0xf5, 0x81, 0x79, 0x3d, 0xf5, 0xdb, 0x47, 0x3e, 0xcc, 0x2d, 0xdb, 0x3d, 0x26, 0x42, 0x79, 0x3e, 0xf1, 0x69, 0xf9, 0xbe, 0xd8, 0x6e, 0xba, 0xbd, 0x5a, 0xff, 0x0c, 0x3e, 0xfc, 0x65, 0xdd, 0xbd, 0x39, 0x9f, 0x30, 0x3e, 0xfb, 0x0e, 0x28, 0x3e, 0x7c, 0x56, 0x01, 0xbd, 0x07, 0xcb, 0x1f, 0xbe, 0x23, 0x69, 0x07, 0xbd, 0xef, 0xb0, 0x0a, 0xbf, 0xad, 0x94, 0x86, 0x3e, 0x58, 0x56, 0x11, 0xbf, 0x9e, 0x18, 0x1e, 0x3e, 0x4a, 0x4f, 0xaf, 0x3e, 0x1f, 0x43, 0x91, 0xbe, 0xa4, 0xfc, 0x14, 0x3d, 0xdf, 0x11, 0x85, 0xbd, 0x06, 0xc2, 0xdd, 0x3c, 0x0e, 0x06, 0x4e, 0xbe, 0x4c, 0xd1, 0x08, 0x3e, 0x6a, 0x0c, 0x09, 0xbe, 0x29, 0x26, 0xa4, 0xbd, 0x39, 0xa9, 0xaa, 0x3e, 0xa9, 0x5c, 0x0c, 0x3e, 0x4c, 0x00, 0x83, 0xbe, 0x96, 0x5c, 0xe8, 0x3d, 0xc2, 0xa9, 0xc3, 0x3e, 0xdf, 0x04, 0x10, 0x3e, 0xe5, 0x23, 0x43, 0x3e, 0xad, 0x54, 0x20, 0xbe, 0x05, 0xf2, 0x52, 0x3e, 0x6c, 0x3c, 0x7e, 0x3e, 0x81, 0xdc, 0x00, 0xbe, 0xee, 0xa5, 0xd8, 0xbc, 0x29, 0x6d, 0x73, 0x3c, 0x84, 0x52, 0x6a, 0x3d, 0x3e, 0x80, 0x64, 0x3e, 0xd6, 0x37, 0x0d, 0xbf, 0x4e, 0x3b, 0x06, 0x3e, 0x69, 0xb8, 0x83, 0xbe, 0x09, 0xf2, 0xd2, 0xbe, 0x9c, 0xa4, 0x9c, 0xbe, 0x4f, 0x2d, 0x71, 0x3e, 0x45, 0xbe, 0xfb, 0xbd, 0x47, 0x74, 0x13, 0x3e, 0x93, 0x57, 0x2f, 0xbe, 0x11, 0x6e, 0x59, 0x3e, 0x8d, 0x70, 0xa9, 0xbe, 0x4e, 0xa3, 0x65, 0xbe, 0x84, 0x5c, 0x46, 0x3e, 0x7f, 0xe4, 0xa4, 0xbe, 0xd1, 0xf6, 0x30, 0x3e, 0xb3, 0xb0, 0x3b, 0x3e, 0x11, 0x24, 0xbc, 0xbc, 0xe8, 0xcb, 0x42, 0xbc, 0xbf, 0x56, 0x1f, 0xbe, 0x23, 0xc7, 0x4d, 0xbd, 0x19, 0x79, 0xaf, 0x3e, 0x17, 0xe6, 0x0c, 0xbe, 0xee, 0xfa, 0x02, 0xbf, 0xc3, 0xe5, 0x95, 0xbd, 0x64, 0x4c, 0xcd, 0xbe, 0x02, 0x2a, 0xc3, 0x3e, 0x81, 0x42, 0x20, 0x3e, 0xb6, 0x26, 0xe5, 0xbd, 0xe9, 0xac, 0x57, 0xbe, 0x72, 0xc6, 0x82, 0x3e, 0xb9, 0x1b, 0x18, 0x3e, 0x89, 0x36, 0x75, 0x3e, 0xe0, 0x30, 0x85, 0x3e, 0xc8, 0xc6, 0xaf, 0x3d, 0x9e, 0x35, 0x87, 0x3e, 0xab, 0xef, 0xb2, 0x3e, 0xc8, 0x7e, 0x5f, 0x3d, 0x15, 0xac, 0xb0, 0x3e, 0x11, 0x67, 0xa6, 0xbe, 0x08, 0xff, 0x9d, 0x3c, 0x86, 0x08, 0x87, 0xbe, 0x21, 0x3e, 0xec, 0xbc, 0xc4, 0x35, 0x9f, 0x3e, 0x36, 0x6d, 0x6e, 0xbc, 0xc8, 0x38, 0x27, 0xbe, 0x58, 0xb7, 0x1a, 0xbe, 0x5a, 0xd1, 0xb2, 0xbe, 0x79, 0x7e, 0x43, 0xbe, 0x79, 0x01, 0xfd, 0x3e, 0x39, 0x6b, 0x8f, 0x3e, 0xcc, 0x3d, 0x50, 0x3e, 0x8e, 0x16, 0x06, 0xbe, 0x5b, 0x98, 0x58, 0x3e, 0x3f, 0x28, 0xfa, 0xbe, 0xb4, 0x02, 0x08, 0xbe, 0xc6, 0xf3, 0x5a, 0x3e, 0xa2, 0xb3, 0x84, 0xbe, 0xd0, 0x20, 0x8a, 0xbe, 0xdb, 0x09, 0x7b, 0x3d, 0xab, 0x8c, 0xbf, 0xbd, 0x88, 0x9c, 0x75, 0xbe, 0x48, 0xd7, 0x07, 0x3e, 0xa3, 0xda, 0xe4, 0xbc, 0xdc, 0x4a, 0x8e, 0x3e, 0x1e, 0xa6, 0x6c, 0x3d, 0xac, 0xbf, 0xbf, 0xbe, 0x97, 0x84, 0xaa, 0x3e, 0xe7, 0xaf, 0x31, 0xbe, 0x47, 0xa7, 0x55, 0xbe, 0xbf, 0xc0, 0xe3, 0xbd, 0x16, 0x50, 0xae, 0xbe, 0x1d, 0xc4, 0xa1, 0xbe, 0x11, 0x64, 0xd4, 0x3e, 0x3d, 0xe9, 0xcd, 0x3e, 0xd4, 0xb8, 0x08, 0x3f, 0x32, 0xf7, 0x20, 0xbe, 0x13, 0x0c, 0xe4, 0x3e, 0x1a, 0x07, 0xe0, 0x3e, 0x55, 0xee, 0xf0, 0xbe, 0x17, 0x96, 0x53, 0xbd, 0x27, 0x52, 0x4b, 0xbe, 0xdd, 0x65, 0x20, 0xbe, 0x8e, 0x45, 0x58, 0x3e, 0x80, 0x55, 0xff, 0x3d, 0x09, 0x61, 0x2f, 0xbd, 0xcc, 0x03, 0x31, 0xbe, 0x81, 0x2d, 0x7b, 0xbf, 0x8d, 0x96, 0xdd, 0x3e, 0x6c, 0xb4, 0x6d, 0xbd, 0xff, 0x3a, 0x10, 0x3e, 0xa3, 0x37, 0x15, 0x3f, 0x01, 0x24, 0xce, 0x3e, 0x70, 0x00, 0xb8, 0x3e, 0x54, 0x03, 0x85, 0x3e, 0xca, 0xc8, 0x21, 0x3e, 0x2a, 0xf2, 0x08, 0x3f, 0xa5, 0xe1, 0x80, 0x3d, 0x25, 0xa5, 0xa1, 0x3d, 0x8f, 0xdb, 0x07, 0x3d, 0x09, 0xac, 0x70, 0x3e, 0xdc, 0xe6, 0xf2, 0x3d, 0xd7, 0xe2, 0xb5, 0xbe, 0x95, 0xe7, 0x69, 0xbd, 0x39, 0xd1, 0xc3, 0x3d, 0x53, 0x21, 0x8d, 0x3e, 0x36, 0x0f, 0x6b, 0xbe, 0x42, 0xee, 0x45, 0xbd, 0xf7, 0x4c, 0x02, 0xbf, 0x4f, 0xaf, 0xaa, 0x3c, 0x32, 0x33, 0x28, 0xbf, 0x46, 0xde, 0xa1, 0x3e, 0xeb, 0x4a, 0x20, 0xbf, 0xe6, 0xa3, 0x86, 0xbd, 0xbe, 0xf0, 0x71, 0xbd, 0xd9, 0x56, 0x8c, 0x3d, 0x5b, 0xf2, 0x62, 0xbe, 0x33, 0x4a, 0x27, 0xbd, 0x45, 0xc5, 0xb5, 0x3e, 0x23, 0x89, 0xb4, 0x3e, 0xcd, 0xe6, 0xda, 0x3d, 0x8e, 0x0d, 0x98, 0x3c, 0xd7, 0xeb, 0x80, 0x3e, 0x01, 0x98, 0xa2, 0xbe, 0x3a, 0xb2, 0x03, 0x3e, 0x9f, 0xd7, 0x64, 0x3d, 0x59, 0x8a, 0x8f, 0x3e, 0x49, 0xbf, 0xcb, 0x3e, 0xe0, 0x47, 0x7d, 0xbe, 0x7b, 0xcb, 0x26, 0x3e, 0x5f, 0x5b, 0x74, 0xbe, 0x74, 0xa5, 0x65, 0xbe, 0xc2, 0x06, 0xa6, 0xbd, 0xe0, 0xc9, 0xbc, 0xbe, 0xe7, 0x68, 0x3c, 0xbd, 0x22, 0x7f, 0x46, 0xbe, 0x7e, 0x9d, 0xd9, 0x3e, 0x5f, 0x14, 0xbe, 0x3e, 0x05, 0x23, 0xa9, 0x3e, 0xa9, 0x4f, 0x65, 0x3d, 0x5d, 0xd9, 0x5c, 0x3f, 0x3e, 0x80, 0x99, 0xbe, 0x37, 0x18, 0x44, 0x3e, 0x1d, 0xd0, 0x83, 0x3d, 0x94, 0x1a, 0x70, 0xbe, 0x38, 0xb0, 0xb2, 0x3e, 0x9d, 0xe0, 0x04, 0xbe, 0x45, 0x38, 0x00, 0x3e, 0x12, 0xbb, 0xbd, 0x3d, 0x6e, 0xc0, 0xb9, 0xbc, 0x63, 0x78, 0x63, 0xbc, 0x25, 0x8a, 0x99, 0xbe, 0xc7, 0x90, 0x04, 0xbe, 0xec, 0x53, 0xab, 0xbd, 0xde, 0x8d, 0x2e, 0xbe, 0x96, 0x90, 0x8c, 0xbd, 0xa1, 0xf8, 0xd9, 0x3d, 0x4d, 0x5c, 0xe0, 0x3a, 0x9d, 0xd8, 0x90, 0xbd, 0x77, 0xf1, 0x37, 0x3e, 0x24, 0xe3, 0x88, 0xbc, 0xd0, 0x8a, 0x2c, 0xbe, 0x3a, 0x09, 0x61, 0xbd, 0x87, 0xd9, 0x88, 0xbe, 0x19, 0x4e, 0xb0, 0xbe, 0x32, 0x72, 0xfc, 0xbe, 0x5e, 0x26, 0x19, 0x3e, 0xf9, 0x33, 0x81, 0xbe, 0x18, 0xcf, 0x0a, 0x3e, 0x69, 0x78, 0x4d, 0xbe, 0xb1, 0xe9, 0xbe, 0xbe, 0xbb, 0xdb, 0x66, 0xbd, 0x24, 0x07, 0x48, 0xbe, 0x27, 0xf5, 0xb5, 0xbe, 0xa7, 0x57, 0xbc, 0xbd, 0x6b, 0x33, 0xc1, 0xbe, 0xfc, 0xfb, 0xeb, 0x3e, 0x87, 0x7e, 0x61, 0x3c, 0xae, 0x6b, 0xb7, 0xbd, 0xcc, 0x6b, 0x9f, 0x3e, 0x4c, 0x07, 0xdb, 0xbd, 0xa9, 0xbb, 0x7f, 0x3d, 0xdb, 0xbe, 0xc4, 0x3e, 0x28, 0x54, 0x54, 0x3e, 0x35, 0xa5, 0x53, 0x3e, 0x13, 0x7b, 0x83, 0x3e, 0xf0, 0xf8, 0xd6, 0x3e, 0x77, 0x28, 0x18, 0x3e, 0x54, 0x82, 0xe8, 0x3e, 0xcb, 0x7a, 0x8e, 0xbe, 0x9c, 0xa0, 0xa5, 0x3e, 0xe1, 0xb7, 0xfb, 0xbe, 0x2e, 0x99, 0xc2, 0x3e, 0x14, 0xed, 0x9b, 0x3e, 0x67, 0x17, 0x17, 0xbc, 0x87, 0x5d, 0x36, 0xbd, 0x8d, 0xa6, 0x37, 0xbf, 0x67, 0xa8, 0xbc, 0xbe, 0xf8, 0xdc, 0xce, 0xbd, 0x4f, 0x7e, 0xa6, 0x3e, 0x7e, 0x37, 0xb1, 0xbc, 0xbe, 0x47, 0xa2, 0xbc, 0xce, 0xd7, 0xfe, 0x3e, 0x05, 0x45, 0xae, 0xbe, 0xbd, 0xa2, 0x27, 0x3e, 0x38, 0xca, 0x80, 0xbe, 0x72, 0x4e, 0x4e, 0x3e, 0xed, 0x2c, 0x58, 0xbe, 0xc3, 0x09, 0xdd, 0x3d, 0xda, 0xb2, 0xc0, 0x3d, 0x06, 0x98, 0x82, 0xbd, 0xc4, 0x62, 0x90, 0xbe, 0x6f, 0xfd, 0xd9, 0x3e, 0xf4, 0xd1, 0xaa, 0x3d, 0xdc, 0x56, 0xc7, 0x3d, 0x12, 0xe7, 0xf5, 0xbd, 0x8a, 0x7d, 0x7e, 0xbe, 0x24, 0xd1, 0xda, 0xbd, 0x6c, 0xe1, 0x9d, 0x3e, 0x58, 0x02, 0xbb, 0xbd, 0x12, 0xb2, 0x9b, 0xbe, 0x02, 0xa5, 0xf4, 0xbd, 0xd4, 0xa3, 0xfe, 0xbe, 0xd0, 0x42, 0xa3, 0xbc, 0xc8, 0x5c, 0x21, 0xbe, 0xba, 0x8a, 0x60, 0x3d, 0x5c, 0xce, 0xb7, 0x3d, 0x22, 0x13, 0x0e, 0xbd, 0x7b, 0xff, 0x37, 0xbf, 0xac, 0xe8, 0x34, 0x3e, 0x40, 0x29, 0x64, 0x3e, 0x76, 0xbb, 0xca, 0xbd, 0xdf, 0x78, 0x93, 0x3e, 0x0f, 0xc9, 0x9c, 0x3d, 0xfe, 0x2f, 0xbd, 0x3e, 0xeb, 0x35, 0x5f, 0xbd, 0xd8, 0xca, 0xff, 0x3d, 0xd1, 0x1f, 0x02, 0xbd, 0x3a, 0xf0, 0x03, 0x3f, 0x5f, 0x6c, 0x1c, 0xbe, 0x86, 0x52, 0x93, 0xbe, 0x7c, 0x5b, 0x87, 0xbe, 0xa0, 0x1a, 0x04, 0x3d, 0x6b, 0xa6, 0xfb, 0x3e, 0xd6, 0xb0, 0x03, 0xbe, 0xe9, 0xc4, 0x28, 0xbe, 0xb4, 0x21, 0xcf, 0xbe, 0x9a, 0x51, 0xbe, 0xbe, 0x9c, 0x8f, 0x24, 0x3e, 0xdb, 0xea, 0x51, 0x3e, 0x0d, 0xb0, 0x3d, 0x3e, 0x32, 0x1d, 0x01, 0xbf, 0x0a, 0xd2, 0x4e, 0x3e, 0x6e, 0x7a, 0x8e, 0xbe, 0x16, 0x7d, 0xbc, 0xbe, 0x49, 0x72, 0xb6, 0x3d, 0xb8, 0x96, 0x64, 0x3e, 0x47, 0x7a, 0xdc, 0x3e, 0x9d, 0x9e, 0xa1, 0x3c, 0x7f, 0xc2, 0x7d, 0x3e, 0x1f, 0x99, 0x27, 0x3d, 0xe7, 0x00, 0x70, 0xbe, 0x18, 0x89, 0x8c, 0x3e, 0x3b, 0x15, 0x7d, 0xbe, 0x1a, 0xc2, 0x81, 0xbe, 0xe4, 0xda, 0x23, 0xbe, 0xeb, 0x1c, 0x72, 0x3e, 0x3e, 0x23, 0xa2, 0xbd, 0x14, 0x4b, 0xfc, 0x3d, 0xea, 0xa4, 0xcf, 0x3e, 0xad, 0xa1, 0xa6, 0xbe, 0xc3, 0x21, 0x49, 0x3e, 0x15, 0xaf, 0xb7, 0xbe, 0x3a, 0xa6, 0x5c, 0xbe, 0xa9, 0x62, 0xcd, 0xbd, 0xee, 0x9f, 0x19, 0xbf, 0x51, 0x8c, 0x05, 0x3f, 0x48, 0x19, 0x38, 0x3e, 0xc2, 0x9c, 0x86, 0xbd, 0xf6, 0x8e, 0x41, 0x3e, 0xb7, 0x25, 0x29, 0xbe, 0x1e, 0x70, 0x1f, 0x3e, 0x99, 0xe1, 0xd2, 0x3e, 0x02, 0x17, 0x06, 0x3d, 0xc7, 0xc9, 0xd0, 0x3e, 0xcf, 0x4d, 0xe4, 0x3d, 0xa3, 0x5e, 0xd3, 0x3e, 0xdd, 0x57, 0xfb, 0xbc, 0xe9, 0xee, 0x02, 0x3f, 0xdf, 0x71, 0x11, 0xbf, 0x6e, 0x93, 0x02, 0x3e, 0xd5, 0xdc, 0xf0, 0xbe, 0x38, 0x10, 0xb2, 0xbc, 0xa2, 0x08, 0x59, 0x3e, 0x8a, 0x4c, 0xa2, 0xbd, 0xf0, 0x1a, 0xa3, 0xbd, 0xd2, 0xfb, 0xa5, 0xbe, 0x07, 0xd3, 0x55, 0xbe, 0xee, 0xf5, 0x4a, 0x3e, 0x4f, 0x70, 0x9a, 0x3e, 0x51, 0x83, 0x7a, 0xbe, 0x4a, 0x15, 0xe8, 0x3e, 0x2f, 0x72, 0x99, 0xbe, 0xf2, 0x3f, 0x1e, 0x3d, 0xd2, 0x27, 0x3c, 0xbe, 0x2b, 0x68, 0xf2, 0x3e, 0xf3, 0x9f, 0x5b, 0xbd, 0x61, 0x63, 0x84, 0xbe, 0x02, 0xac, 0x47, 0x3e, 0xed, 0x9e, 0xac, 0x3e, 0x23, 0x8a, 0x52, 0xbe, 0x23, 0x8a, 0xa2, 0x3e, 0x82, 0x52, 0x39, 0x3d, 0x74, 0xbc, 0xaf, 0x3e, 0xd8, 0xcc, 0xd5, 0x3e, 0xaf, 0x68, 0x4f, 0x3e, 0xdd, 0xfb, 0x56, 0x3e, 0xbf, 0x3a, 0xb6, 0x3d, 0x80, 0xa5, 0x3d, 0xbe, 0x8e, 0xfb, 0x33, 0xbe, 0xf0, 0xb5, 0x00, 0x3c, 0xe3, 0x21, 0xca, 0xbe, 0x5d, 0xc7, 0xb4, 0x3d, 0xae, 0xd6, 0xf7, 0x3e, 0x20, 0xbb, 0x33, 0x3e, 0x10, 0x35, 0x09, 0x3f, 0xe2, 0x8c, 0xce, 0xbe, 0x64, 0x39, 0x9a, 0x3d, 0x06, 0xeb, 0x82, 0x3e, 0x11, 0x4c, 0x38, 0xbd, 0xf3, 0xd2, 0x69, 0xbe, 0xd3, 0xf3, 0xc1, 0x3e, 0x1e, 0xbe, 0x48, 0xbc, 0x0e, 0x86, 0x3c, 0x3e, 0x02, 0xad, 0x18, 0x3d, 0x25, 0x35, 0x8b, 0xbd, 0xdb, 0xaa, 0x41, 0x3e, 0x06, 0x7b, 0x28, 0xbe, 0xa5, 0x9c, 0xd3, 0xbe, 0xaa, 0x16, 0xc1, 0x3e, 0x69, 0x62, 0x6f, 0x3e, 0x95, 0xff, 0x52, 0x3e, 0x66, 0x89, 0x8a, 0x3e, 0x8c, 0x58, 0x55, 0xbe, 0x6f, 0x81, 0xd9, 0xbd, 0xcd, 0xed, 0x1c, 0xbd, 0x01, 0x78, 0x29, 0x3e, 0x8e, 0x60, 0x0a, 0x3f, 0x73, 0xc8, 0xed, 0x3d, 0xce, 0x6c, 0x40, 0xba, 0x56, 0x29, 0x4e, 0x3d, 0x83, 0x95, 0x10, 0xbe, 0xe3, 0xcc, 0x9a, 0xbe, 0x87, 0x66, 0x68, 0xbc, 0xf1, 0x17, 0x1f, 0x3e, 0x25, 0x2c, 0x9f, 0xbe, 0xdf, 0xad, 0x19, 0x3e, 0xa1, 0x13, 0x4e, 0x3e, 0xc5, 0xc1, 0xff, 0xbd, 0x68, 0x4c, 0x99, 0xbd, 0xfd, 0x81, 0xa7, 0xbe, 0x2a, 0x06, 0x31, 0x3e, 0xbb, 0xee, 0x96, 0x3c, 0xac, 0xbe, 0x87, 0x3e, 0x0d, 0x93, 0xf5, 0xbd, 0x20, 0xa7, 0x96, 0xbd, 0x71, 0xf9, 0x7f, 0xbe, 0x1c, 0x19, 0x29, 0xbd, 0x34, 0x84, 0xe4, 0x3d, 0x58, 0x7e, 0x2f, 0x3e, 0x2e, 0x20, 0x3a, 0xbd, 0xfa, 0xe7, 0x4f, 0x3d, 0x64, 0x99, 0xa2, 0x3e, 0x2b, 0xb9, 0x6b, 0x3e, 0xdc, 0x71, 0x19, 0xbe, 0x99, 0x6c, 0x9f, 0x3e, 0x7e, 0x39, 0x14, 0x3e, 0xb5, 0x3f, 0xba, 0x3e, 0x41, 0x08, 0x16, 0xbf, 0x45, 0xd8, 0x9a, 0xbd, 0xf7, 0x6d, 0xd0, 0xbe, 0xa6, 0x01, 0xaf, 0x3e, 0x06, 0x3b, 0x64, 0x3e, 0x58, 0x6f, 0x1e, 0xbe, 0xc7, 0x38, 0x97, 0x3d, 0xa0, 0xbf, 0x9d, 0xbe, 0xdd, 0xa5, 0xd4, 0x3e, 0xbf, 0x99, 0xfa, 0xbc, 0x73, 0xc9, 0x83, 0xbd, 0xca, 0x3b, 0x80, 0x3e, 0x67, 0xb8, 0x1a, 0x3f, 0xeb, 0xfc, 0x1e, 0xbe, 0x7c, 0xc6, 0x74, 0x3e, 0x33, 0x2d, 0xe8, 0xb9, 0x3b, 0xb2, 0xe8, 0xbe, 0x7a, 0x47, 0xb0, 0x3e, 0xde, 0x83, 0xf7, 0x3d, 0xd0, 0xad, 0x29, 0x3d, 0xcd, 0x93, 0x29, 0xbe, 0xf4, 0x97, 0x59, 0x3e, 0x73, 0x01, 0xf4, 0xbd, 0x01, 0x12, 0x9f, 0x3e, 0x06, 0xb7, 0xd2, 0x3c, 0xb5, 0x4c, 0x4c, 0x3e, 0x9c, 0xa2, 0x8d, 0xbd, 0x43, 0xc3, 0xdb, 0x3d, 0xe1, 0x6f, 0x49, 0x3e, 0x87, 0xe0, 0x17, 0x3e, 0x96, 0xf2, 0xa7, 0xbc, 0x4b, 0xbb, 0xf1, 0xbd, 0x8c, 0x41, 0xfa, 0xbc, 0xa8, 0x3f, 0x10, 0xbe, 0xd4, 0x2f, 0x8a, 0x3c, 0x24, 0x73, 0x87, 0xbb, 0x0b, 0x94, 0x1e, 0x3e, 0xaa, 0x94, 0xda, 0x3e, 0xee, 0xca, 0x3e, 0xbe, 0xcb, 0x68, 0x6d, 0xbd, 0xaf, 0x7e, 0x90, 0xbd, 0x1b, 0x02, 0x00, 0x3e, 0x9d, 0x13, 0x33, 0xbe, 0x97, 0x20, 0x8c, 0xbd, 0x0d, 0x6f, 0x35, 0x3e, 0x9b, 0xeb, 0xb8, 0x3e, 0x84, 0xaa, 0x7e, 0x3c, 0x38, 0x5a, 0xbc, 0x3e, 0x4c, 0x4e, 0x94, 0xbe, 0xe0, 0xd3, 0x19, 0xbe, 0x7a, 0x8f, 0xd4, 0xbd, 0xb6, 0x47, 0xef, 0xbd, 0x58, 0x20, 0x25, 0xbe, 0x87, 0x28, 0xbb, 0x3c, 0x49, 0x96, 0x12, 0xbe, 0xa2, 0xe0, 0x0c, 0x3e, 0x66, 0x90, 0xa8, 0xbe, 0x74, 0x46, 0x81, 0xbd, 0x51, 0xac, 0x43, 0x3e, 0xf3, 0x66, 0x05, 0x3b, 0x1e, 0xcb, 0x3d, 0xbd, 0xdb, 0x2b, 0xc7, 0x3e, 0x60, 0x89, 0x6e, 0x3c, 0xe6, 0xd6, 0x0a, 0x3f, 0x9e, 0xda, 0xca, 0x3e, 0xef, 0xa5, 0xdc, 0x3d, 0xd9, 0xde, 0x2d, 0x3d, 0x60, 0xff, 0x0d, 0x3f, 0xbb, 0x69, 0x05, 0x3f, 0x83, 0x89, 0x3d, 0x3b, 0x09, 0x2f, 0xf2, 0x3c, 0x95, 0x88, 0x8b, 0x3d, 0x42, 0x41, 0x2a, 0xbd, 0x5b, 0x44, 0x19, 0xbf, 0x62, 0xda, 0x5b, 0x3d, 0x3a, 0x5b, 0x2e, 0xbe, 0x06, 0x00, 0xce, 0x3e, 0x3d, 0x24, 0x2c, 0x3e, 0x01, 0x15, 0x88, 0xbe, 0xc1, 0x08, 0xff, 0x3e, 0x22, 0xd1, 0x87, 0x3e, 0x40, 0xc2, 0x6a, 0x3d, 0xba, 0xec, 0x52, 0xbe, 0xeb, 0x04, 0xc6, 0x3e, 0x6a, 0x66, 0x92, 0x3e, 0xb8, 0x6e, 0x06, 0x3f, 0xf9, 0xb9, 0x5e, 0x3e, 0x7b, 0xda, 0x58, 0x3e, 0xfa, 0xa8, 0x32, 0xbe, 0x82, 0x69, 0x42, 0xbe, 0x27, 0x17, 0xfa, 0xbe, 0xb2, 0xa9, 0x03, 0xbe, 0x47, 0x07, 0x68, 0x3d, 0xeb, 0x1b, 0x06, 0xbf, 0x1d, 0xf5, 0xe3, 0x3c, 0x1a, 0x0f, 0x0a, 0x3d, 0x1b, 0xdd, 0x5e, 0xbd, 0x1c, 0x8f, 0x7b, 0x3c, 0x7f, 0x64, 0x0f, 0xbd, 0xc9, 0x74, 0x86, 0x3e, 0xe1, 0x65, 0xe9, 0xbd, 0xbc, 0xb4, 0xce, 0x3c, 0x14, 0x2e, 0xc6, 0x3e, 0x17, 0x21, 0x46, 0xbe, 0x09, 0x10, 0xea, 0xbe, 0xd5, 0xf8, 0x20, 0x3d, 0x02, 0x35, 0xa9, 0x3d, 0xe6, 0x79, 0x49, 0x3e, 0x5e, 0xa3, 0x03, 0xbf, 0x47, 0x44, 0x3a, 0xbe, 0xed, 0x42, 0x94, 0xbd, 0x46, 0xa3, 0xe5, 0x3e, 0x4b, 0x1b, 0x6f, 0xbe, 0x41, 0x27, 0xa8, 0x3e, 0x18, 0xf3, 0x26, 0xbe, 0xdf, 0x65, 0xea, 0xbe, 0x7a, 0x79, 0xe4, 0x3d, 0xe5, 0x57, 0x52, 0x3e, 0xc8, 0x13, 0xea, 0xbd, 0x84, 0x68, 0x1d, 0x3d, 0x79, 0xf1, 0x5b, 0x3b, 0x7b, 0x46, 0x40, 0xbe, 0xb2, 0xdc, 0x9b, 0xbe, 0xcb, 0x94, 0xe5, 0xbd, 0x1d, 0xef, 0xc6, 0xbd, 0xfc, 0xd6, 0xbb, 0x3d, 0xa9, 0x3c, 0x2b, 0x3e, 0x35, 0x9f, 0x27, 0xbe, 0x4f, 0xc5, 0x8f, 0xbe, 0x70, 0xee, 0x62, 0xbc, 0x67, 0xb4, 0xcc, 0xba, 0x12, 0x16, 0xbd, 0xbd, 0x52, 0xb7, 0x33, 0x3d, 0x9d, 0x20, 0x25, 0xbe, 0xcd, 0xd7, 0x06, 0x3e, 0x14, 0x8c, 0x7a, 0xbd, 0xdf, 0x27, 0xf2, 0x3e, 0x84, 0x3c, 0x4a, 0x3e, 0xd4, 0xe8, 0x1a, 0xbd, 0x33, 0xd6, 0x77, 0xbe, 0xc1, 0x49, 0x62, 0x3e, 0xb8, 0xe5, 0x30, 0x3e, 0x14, 0xf2, 0x41, 0x3e, 0x3b, 0x3b, 0xee, 0xbc, 0xd1, 0x62, 0x8c, 0xbd, 0x99, 0xef, 0xbf, 0x3d, 0x09, 0x16, 0x73, 0xbd, 0xe8, 0x2a, 0x0d, 0x3d, 0xd3, 0xf0, 0x35, 0x3e, 0x92, 0xa5, 0x0a, 0x3e, 0xf7, 0x77, 0x91, 0x3e, 0x98, 0xcc, 0x02, 0x3c, 0x1a, 0x6d, 0x9f, 0xbe, 0x0b, 0x25, 0xbc, 0x3d, 0xd0, 0xe1, 0xcb, 0xbc, 0x11, 0x13, 0x9d, 0xbe, 0x48, 0x1c, 0xcd, 0x3e, 0xfd, 0xb5, 0x30, 0xbe, 0xfd, 0xe8, 0x86, 0xbb, 0xa8, 0x4c, 0xdb, 0x3c, 0x84, 0x80, 0x45, 0x3e, 0x90, 0x6b, 0x59, 0xbc, 0x34, 0x01, 0x93, 0x3e, 0x16, 0x76, 0x3e, 0x3b, 0x05, 0x15, 0xa8, 0xbc, 0x2e, 0x55, 0xd7, 0x3d, 0x5f, 0x1b, 0x25, 0x3e, 0x39, 0xa1, 0x07, 0xbe, 0x60, 0x2f, 0xf4, 0x3d, 0xab, 0xd7, 0x80, 0x3e, 0x2f, 0x43, 0xfb, 0xbd, 0xf9, 0xcd, 0x92, 0xbe, 0x24, 0x70, 0x20, 0x3e, 0x0d, 0x50, 0x84, 0xbe, 0x10, 0x35, 0x13, 0xbe, 0xd1, 0x8e, 0x54, 0xbe, 0x1a, 0x0b, 0x49, 0xbe, 0xd4, 0x7d, 0x85, 0xbe, 0xa4, 0x4c, 0x47, 0xbd, 0x33, 0x4a, 0x74, 0x3e, 0x5f, 0x9b, 0x36, 0xbc, 0xdc, 0x21, 0xbb, 0x3d, 0x37, 0xe7, 0x05, 0x3e, 0x55, 0x5d, 0xc6, 0x3c, 0x80, 0x26, 0x14, 0xbc, 0x88, 0x8f, 0x1b, 0xbe, 0x6c, 0x69, 0x08, 0xbe, 0xa0, 0x21, 0x8b, 0xbe, 0x86, 0xcc, 0xb1, 0x3e, 0x0b, 0x3f, 0x23, 0xbe, 0x0b, 0x65, 0xf9, 0xbd, 0xe7, 0xcc, 0x0d, 0xbc, 0xb8, 0xcc, 0xcc, 0x3c, 0x0d, 0x5e, 0xce, 0x3e, 0x13, 0x23, 0xc5, 0xbd, 0xe0, 0xd6, 0xe9, 0x3d, 0xc3, 0xa3, 0x86, 0xbe, 0x14, 0x7a, 0xff, 0x3d, 0xc2, 0xee, 0xc6, 0x3e, 0x5a, 0x21, 0xc9, 0x3e, 0xeb, 0x19, 0x94, 0xbd, 0x66, 0x9c, 0xf9, 0x3d, 0x31, 0x2a, 0xc8, 0x3e, 0x82, 0x7d, 0xac, 0x3d, 0x49, 0x1f, 0x60, 0xbe, 0xd4, 0x9c, 0x5c, 0x3e, 0xdc, 0xb2, 0x29, 0x3d, 0x87, 0x40, 0xc8, 0x3e, 0x5f, 0x84, 0xb7, 0xbd, 0x42, 0xf2, 0xd0, 0x3c, 0xf2, 0x0b, 0x9f, 0x3e, 0xcc, 0x86, 0xa1, 0xbd, 0xc4, 0x24, 0x1c, 0x3f, 0x63, 0xa7, 0x17, 0x3e, 0xa8, 0xba, 0xce, 0x3e, 0x66, 0x67, 0x37, 0x3e, 0x48, 0x6b, 0xd7, 0xbb, 0xcf, 0xdc, 0x81, 0xbe, 0xc6, 0xde, 0xe4, 0xbe, 0x8b, 0xb0, 0x57, 0xbe, 0x53, 0x09, 0x90, 0x3d, 0x39, 0x4d, 0x76, 0xbc, 0x3a, 0xb2, 0xd1, 0x3e, 0x06, 0x21, 0xd4, 0x3d, 0x94, 0x77, 0xe0, 0x3e, 0xc8, 0x22, 0x9c, 0x3e, 0xb6, 0xd1, 0xaa, 0xbd, 0xa2, 0x41, 0x16, 0x3e, 0x7d, 0xe5, 0xb0, 0xbe, 0x1a, 0xbc, 0x4e, 0xbd, 0x73, 0xe6, 0x97, 0x3e, 0x84, 0x8d, 0xb7, 0xbd, 0x89, 0x03, 0x4c, 0x3e, 0x84, 0x42, 0xa7, 0xbe, 0x5e, 0xf6, 0xa2, 0x3e, 0xc9, 0xc9, 0xb8, 0x3d, 0x41, 0x49, 0x07, 0x3f, 0x04, 0xe9, 0x69, 0x3e, 0x6f, 0x11, 0x01, 0x3e, 0x8c, 0xfb, 0x33, 0x3e, 0x34, 0x78, 0x6a, 0x3e, 0xd0, 0x6d, 0xfd, 0x3c, 0x43, 0xa9, 0xad, 0x3e, 0x63, 0x31, 0xcd, 0xbd, 0xf8, 0x21, 0x7a, 0xbe, 0xa7, 0x91, 0x17, 0x3f, 0x8d, 0x3e, 0x35, 0x3e, 0xd3, 0xf9, 0xed, 0x3e, 0x3e, 0x81, 0xd2, 0xbe, 0x5b, 0x04, 0xdc, 0x3c, 0xa8, 0xdc, 0x79, 0x3e, 0x3f, 0xcc, 0x44, 0xbe, 0xe1, 0x77, 0x69, 0x3e, 0xe1, 0xc1, 0x85, 0xbe, 0x1b, 0xe2, 0xec, 0xbd, 0x1c, 0x82, 0x7d, 0xbd, 0xed, 0x35, 0x0a, 0xbe, 0x48, 0x91, 0x55, 0x3e, 0xc7, 0xec, 0x3f, 0xbe, 0x71, 0x22, 0x7f, 0x3c, 0x26, 0x34, 0xa1, 0xbe, 0x02, 0xc2, 0x6f, 0xbe, 0xfc, 0xbc, 0x89, 0xbe, 0x74, 0xf5, 0xd0, 0x3d, 0x13, 0x6b, 0xc9, 0xbe, 0x52, 0xfd, 0xea, 0xbd, 0xc8, 0x7e, 0x3f, 0xbc, 0xcd, 0xd0, 0x53, 0xbe, 0x4e, 0x52, 0xbd, 0xbd, 0xd2, 0xb7, 0x2a, 0x3d, 0x34, 0x77, 0xd5, 0x3d, 0xd3, 0x16, 0x2c, 0xbe, 0x3e, 0xe7, 0x9a, 0x3e, 0x17, 0xa8, 0xf6, 0x3d, 0xfb, 0x3f, 0x06, 0xbe, 0x92, 0x47, 0xc0, 0xbc, 0x74, 0x8f, 0xd5, 0x3e, 0xba, 0xa1, 0x38, 0x3e, 0x30, 0x42, 0xc7, 0x3d, 0x8d, 0x4f, 0xc4, 0x3c, 0x29, 0xa3, 0x08, 0x3d, 0xd6, 0x93, 0x9e, 0x3e, 0xc8, 0x50, 0x55, 0xbe, 0xc2, 0xf0, 0x9d, 0xbe, 0x5d, 0x47, 0xa0, 0x3e, 0xc3, 0x4e, 0xaa, 0x3c, 0x86, 0x51, 0xac, 0xbd, 0x97, 0x08, 0x84, 0x3d, 0xa8, 0xc5, 0x80, 0xbd, 0x9f, 0x83, 0x0f, 0xbc, 0xfe, 0xdc, 0x88, 0x3e, 0xbc, 0x4d, 0xb6, 0x3e, 0xbe, 0x7b, 0xa1, 0x3e, 0xd6, 0x8a, 0xd1, 0x3d, 0x24, 0x82, 0x25, 0x3e, 0xe2, 0x49, 0xe4, 0x3e, 0x00, 0x91, 0x82, 0xbe, 0xce, 0x42, 0xb9, 0x3e, 0xf8, 0xc3, 0x5f, 0x3d, 0xdb, 0xf0, 0x9e, 0xbe, 0x54, 0x32, 0x3f, 0x3e, 0x54, 0x1d, 0x6c, 0x3d, 0xd4, 0xdb, 0xb9, 0xbe, 0xe9, 0xaf, 0x9a, 0x3e, 0x49, 0x31, 0x63, 0x3d, 0x37, 0x88, 0x87, 0xbe, 0xff, 0xd6, 0x33, 0xbf, 0x9f, 0x1e, 0x07, 0xbe, 0x63, 0xd5, 0x8f, 0x3b, 0x19, 0xb2, 0xe4, 0x3e, 0xea, 0x68, 0xaf, 0xbe, 0x26, 0x05, 0x63, 0x3e, 0x6e, 0xbf, 0x94, 0x3d, 0x1f, 0x83, 0x94, 0xbe, 0x50, 0xf0, 0x9a, 0xbd, 0x4f, 0x7e, 0x22, 0xbe, 0xf9, 0xea, 0xff, 0xbd, 0x38, 0x4a, 0xdf, 0x3e, 0x9b, 0x60, 0xa9, 0xbe, 0x5b, 0xd4, 0x28, 0xbe, 0xe5, 0x07, 0x30, 0x3e, 0x67, 0xf0, 0xda, 0xbe, 0xce, 0xf9, 0xc6, 0xbd, 0x2c, 0x96, 0x29, 0xbe, 0x28, 0xdd, 0x58, 0xbe, 0x59, 0x35, 0x9d, 0xbe, 0x9d, 0xfa, 0xa6, 0x3d, 0x46, 0xb0, 0xa2, 0xbe, 0x3d, 0x8a, 0xd1, 0xbd, 0x57, 0x7f, 0xb4, 0x3e, 0xed, 0xdb, 0x61, 0xbe, 0x4a, 0x89, 0x00, 0x3d, 0xd8, 0xf4, 0x8b, 0x3c, 0x66, 0x88, 0xb3, 0xbd, 0xa7, 0x86, 0x88, 0xbe, 0xcc, 0xf5, 0x7a, 0xbe, 0xcc, 0x7f, 0x0b, 0xbf, 0xfd, 0xe1, 0x82, 0xbe, 0xcc, 0xb6, 0x4a, 0xbc, 0x75, 0x41, 0x6c, 0xbd, 0xb8, 0xe8, 0x3b, 0x3e, 0x69, 0x24, 0x90, 0x3e, 0xac, 0xec, 0x8d, 0x3d, 0x23, 0x11, 0xf0, 0xbd, 0x06, 0x70, 0x8d, 0x3e, 0x72, 0x56, 0x31, 0xbf, 0xa2, 0x23, 0xab, 0xbe, 0xa2, 0xeb, 0x3b, 0xbf, 0xfb, 0x4d, 0x9c, 0x3e, 0x9e, 0xb2, 0xa2, 0xbc, 0x99, 0xc9, 0x50, 0xbe, 0x24, 0x9b, 0x7f, 0x3e, 0x54, 0x9b, 0x8b, 0x3d, 0x56, 0x3a, 0xf3, 0xbd, 0x21, 0x70, 0x5e, 0x3e, 0xa8, 0x8c, 0xd9, 0x3c, 0x54, 0x68, 0x95, 0x3e, 0x78, 0x0f, 0x90, 0x3e, 0x20, 0x3a, 0xf0, 0x3e, 0x3e, 0xcd, 0x30, 0x3e, 0x93, 0x03, 0xc4, 0x3e, 0x32, 0xdd, 0xbc, 0xbe, 0xaa, 0xaa, 0x16, 0x3f, 0x29, 0x0b, 0xe3, 0xbe, 0x40, 0x49, 0x4c, 0x3e, 0x85, 0x42, 0x11, 0x3e, 0x18, 0xa3, 0x46, 0x3e, 0x3f, 0x1b, 0x70, 0xbe, 0xa4, 0x85, 0x42, 0xbd, 0xf3, 0x3a, 0xcc, 0xbd, 0xcd, 0xa3, 0xa8, 0xbc, 0xcf, 0xa6, 0x0b, 0x3d, 0x00, 0x55, 0x17, 0x3d, 0x1c, 0x00, 0x15, 0x3f, 0xba, 0x01, 0x25, 0xbe, 0x78, 0x60, 0x01, 0x3e, 0x0e, 0xf2, 0x21, 0x3e, 0x9a, 0x51, 0xd9, 0x3e, 0x86, 0xe5, 0xc8, 0xbd, 0xc6, 0xfc, 0xac, 0xbd, 0xbd, 0xe3, 0x40, 0x3d, 0x50, 0xcb, 0x91, 0xbe, 0xf5, 0x5c, 0xef, 0xbc, 0x0c, 0xd0, 0x6e, 0x3e, 0x67, 0x0c, 0x9f, 0x3e, 0x53, 0x1e, 0x3b, 0x3e, 0xd3, 0xdb, 0x86, 0xbd, 0xf2, 0x6a, 0x06, 0x3e, 0xa7, 0x0a, 0x7f, 0xbe, 0x6c, 0x0b, 0xcc, 0x3e, 0xbe, 0x64, 0xbf, 0x3c, 0x29, 0x44, 0x4a, 0x3e, 0x4e, 0x5f, 0xb2, 0x3e, 0xf7, 0xc5, 0x83, 0x3e, 0xff, 0x0d, 0x56, 0x3c, 0x05, 0xbd, 0x8b, 0x3e, 0xcb, 0xa4, 0xc9, 0x3e, 0xaa, 0x43, 0x87, 0x3e, 0xf7, 0x25, 0x1d, 0x3e, 0xc6, 0xac, 0x1d, 0xbe, 0xe4, 0xda, 0x1b, 0xbe, 0xda, 0x1b, 0x59, 0x3e, 0x4a, 0x44, 0x83, 0x3e, 0x33, 0x88, 0xa3, 0xbd, 0x3f, 0x46, 0xe2, 0x3a, 0x05, 0x1e, 0xeb, 0xbd, 0x6c, 0xe7, 0x76, 0xbf, 0x4a, 0x6a, 0x7e, 0x3e, 0x64, 0x4e, 0xa7, 0xbe, 0x9c, 0xd7, 0x37, 0x3e, 0x21, 0x36, 0x17, 0xbf, 0x64, 0x4a, 0x70, 0xbd, 0x56, 0xfe, 0xeb, 0xbe, 0x3b, 0x48, 0x51, 0xbd, 0x62, 0xb7, 0xb7, 0xbe, 0x17, 0x55, 0xd7, 0xbc, 0xa7, 0x2f, 0x9d, 0xbe, 0x86, 0x0b, 0xdd, 0x3d, 0x91, 0x4a, 0x0c, 0x3f, 0x2d, 0x7e, 0xb0, 0x3d, 0x1e, 0x2f, 0x60, 0x3d, 0xff, 0x2d, 0x70, 0xbd, 0x16, 0x76, 0xe0, 0x3d, 0x7d, 0xdd, 0x55, 0xbd, 0xef, 0xb3, 0x4d, 0x3e, 0x1f, 0xa9, 0x3f, 0x3e, 0x51, 0x0b, 0xd7, 0x3e, 0x19, 0xe6, 0xd9, 0x3e, 0xed, 0x76, 0x83, 0xbe, 0xec, 0xe0, 0xd9, 0x3c, 0x65, 0x0f, 0x2b, 0x3e, 0xe3, 0xa2, 0x8b, 0x3d, 0x74, 0xca, 0x48, 0xbe, 0xce, 0x54, 0x88, 0xbc, 0xd4, 0xc6, 0x9a, 0x3e, 0xa3, 0xa0, 0x28, 0xbe, 0x54, 0x49, 0xd8, 0x3e, 0x29, 0xec, 0x68, 0xbd, 0xcb, 0x2a, 0x5f, 0x3e, 0x21, 0x16, 0x46, 0xbc, 0xdd, 0x40, 0xe1, 0x3d, 0xa3, 0x1e, 0xa7, 0x3e, 0xe5, 0x2b, 0xd3, 0x3d, 0x7f, 0x0b, 0x1e, 0x3c, 0x1f, 0x2d, 0x03, 0x3c, 0x47, 0x8e, 0xdf, 0x3c, 0x01, 0xac, 0x39, 0xbe, 0x9a, 0x3c, 0x46, 0x3e, 0x67, 0xc6, 0x6a, 0x3d, 0x17, 0xfb, 0x0b, 0xbf, 0xcd, 0x8a, 0x2b, 0x3e, 0x35, 0x76, 0xfa, 0x3d, 0xed, 0x80, 0xb2, 0xbe, 0xec, 0x92, 0x90, 0xbd, 0xe7, 0x2a, 0xd0, 0x3d, 0x50, 0x3b, 0xb6, 0x3b, 0x24, 0xe7, 0x34, 0xbe, 0x1c, 0x6a, 0x21, 0xbe, 0xb5, 0x9b, 0x82, 0x3d, 0x83, 0x31, 0xf0, 0x3e, 0x67, 0xad, 0x88, 0x3e, 0xd0, 0xe0, 0x8e, 0x3d, 0xec, 0xd8, 0xa3, 0x3e, 0xa2, 0xc8, 0x80, 0x3d, 0x9e, 0xc6, 0x90, 0xbe, 0xd4, 0x46, 0x17, 0xbe, 0x78, 0x55, 0x3a, 0xbd, 0x5d, 0x4c, 0x3a, 0x3e, 0x2e, 0x53, 0xb3, 0xbe, 0xf0, 0xff, 0x78, 0x3e, 0xb9, 0x99, 0x05, 0xbd, 0x0a, 0xb2, 0x05, 0xbf, 0xf3, 0xa9, 0x5e, 0xbe, 0x3f, 0x4e, 0x42, 0x3e, 0xd2, 0x08, 0xd6, 0x3e, 0x4f, 0xd0, 0xf7, 0x3c, 0xac, 0x68, 0xb0, 0xbc, 0xc1, 0xf1, 0x8a, 0x3e, 0x8d, 0xcf, 0x99, 0xbe, 0x29, 0xd0, 0x9d, 0x3e, 0xe3, 0x6e, 0x53, 0x3e, 0xbf, 0x39, 0x0d, 0xbd, 0xea, 0x90, 0x8e, 0x3d, 0x54, 0x58, 0x75, 0x3c, 0xbd, 0xd0, 0x79, 0x3e, 0xb7, 0x89, 0x95, 0x3e, 0x0d, 0x44, 0xaa, 0x3e, 0xf5, 0x2c, 0xad, 0x3c, 0xae, 0xf5, 0x4f, 0xbe, 0xd6, 0xb3, 0x9e, 0x3e, 0x57, 0xf4, 0xe3, 0xbc, 0x6f, 0xe8, 0x6c, 0xbe, 0x08, 0x72, 0xb7, 0x3e, 0xc5, 0xf4, 0xd7, 0xbe, 0x07, 0x4d, 0x42, 0x3e, 0x24, 0x0b, 0xfa, 0x3e, 0xdf, 0xa8, 0x12, 0x3c, 0x1f, 0x16, 0x2d, 0x3f, 0xc5, 0x26, 0xae, 0xbe, 0xe1, 0xbf, 0x62, 0xbe, 0x36, 0x0c, 0x1b, 0x3f, 0xd7, 0xb3, 0xff, 0x3d, 0x02, 0xba, 0x58, 0x3e, 0xfe, 0x09, 0x06, 0x3e, 0x47, 0x8e, 0x84, 0xbe, 0x48, 0x80, 0xaf, 0xbd, 0xcb, 0xd1, 0xa0, 0xbd, 0x81, 0x84, 0x1c, 0x3d, 0x02, 0xa3, 0xbf, 0xbe, 0x7e, 0xfe, 0x46, 0x3e, 0x88, 0x3f, 0x38, 0xbe, 0x42, 0xee, 0xe4, 0x3e, 0x1c, 0x15, 0x88, 0xbc, 0x8d, 0xaf, 0xc4, 0x3e, 0x3c, 0x24, 0xb2, 0xbc, 0x84, 0xb4, 0xf9, 0xbe, 0x70, 0x65, 0xcf, 0xbd, 0xf1, 0x01, 0x31, 0x3d, 0x5e, 0x6c, 0xea, 0x3d, 0x8a, 0x59, 0x05, 0x3f, 0xbc, 0xf5, 0x87, 0x3e, 0x73, 0xc7, 0xf8, 0xbe, 0x72, 0xbd, 0x2c, 0x3e, 0xd5, 0x86, 0xde, 0xbd, 0xcb, 0xc0, 0x5e, 0x3e, 0xb9, 0x23, 0x0a, 0x3f, 0x03, 0x03, 0xb8, 0xbc, 0x90, 0x87, 0xa8, 0x3e, 0x4c, 0xcb, 0xb1, 0x3e, 0x30, 0x4d, 0x49, 0xbd, 0x3a, 0x20, 0x07, 0x3e, 0x65, 0x64, 0xa4, 0xbe, 0x4d, 0x75, 0x06, 0xbe, 0x34, 0x9a, 0x06, 0xbd, 0x9b, 0x87, 0xb3, 0x3e, 0x9b, 0x66, 0x6c, 0x3e, 0xd2, 0x00, 0xa7, 0x3e, 0xcb, 0xda, 0x30, 0x3e, 0x68, 0xc5, 0x03, 0x3b, 0x29, 0x16, 0x64, 0x3e, 0x06, 0x32, 0x99, 0x3d, 0x76, 0xea, 0x1b, 0xbe, 0x19, 0xb6, 0x49, 0xbe, 0x5a, 0x3c, 0x9f, 0x3e, 0x60, 0x16, 0x11, 0xbe, 0x75, 0xa2, 0x1e, 0xbd, 0x20, 0xad, 0x24, 0x3e, 0xe5, 0xf3, 0x97, 0x3e, 0x26, 0xa4, 0xc7, 0x3d, 0x58, 0xa5, 0x38, 0xbe, 0x02, 0xc5, 0x2f, 0x3e, 0x06, 0x64, 0xd7, 0xbe, 0xa9, 0x94, 0xd3, 0xbe, 0x3d, 0x3f, 0xeb, 0x3d, 0x1a, 0x9c, 0xeb, 0x3d, 0x0c, 0xb5, 0xc2, 0xbe, 0x4c, 0x8a, 0x80, 0x3e, 0x0a, 0x01, 0xe9, 0xbe, 0x21, 0x03, 0xaf, 0xbe, 0x4d, 0xb6, 0x0b, 0xbf, 0x4c, 0x0c, 0xff, 0xbd, 0xc6, 0x75, 0x9e, 0xbc, 0x8b, 0x3c, 0xc7, 0xbe, 0x49, 0xc5, 0xae, 0x3e, 0xad, 0x32, 0xb7, 0x3d, 0x08, 0x3c, 0xd3, 0x3d, 0x8d, 0xd9, 0x26, 0x3e, 0x38, 0xf0, 0x08, 0x3e, 0xf4, 0x34, 0xc7, 0x3e, 0x0c, 0xcd, 0x5f, 0x3e, 0x45, 0x96, 0x33, 0xbe, 0x18, 0x80, 0x30, 0x3c, 0xa1, 0xbe, 0xce, 0x3c, 0x75, 0xcc, 0x75, 0xbd, 0x7e, 0x42, 0x9b, 0x3c, 0xfc, 0x48, 0x8b, 0xbd, 0xfb, 0x27, 0x43, 0x3e, 0x03, 0x02, 0x13, 0xbe, 0x8d, 0x9f, 0xee, 0xbd, 0xad, 0x4f, 0xd3, 0x3e, 0x13, 0xaa, 0x3a, 0x3e, 0xe9, 0xdf, 0xf0, 0x3e, 0xf4, 0x09, 0xc7, 0x3e, 0x6f, 0x4f, 0x92, 0x3e, 0xbc, 0xd2, 0x90, 0x3e, 0xae, 0x9a, 0x3d, 0xbf, 0x2f, 0x87, 0x63, 0xbc, 0xcb, 0xb9, 0x24, 0xbf, 0xe6, 0xde, 0x07, 0x3f, 0xc0, 0x01, 0xf4, 0xbd, 0x70, 0xed, 0x4d, 0xbe, 0x37, 0x11, 0x1e, 0x3e, 0x4a, 0x0b, 0x9a, 0xbd, 0x13, 0x8f, 0x6f, 0x3d, 0x9c, 0x18, 0xd8, 0x3e, 0x3b, 0xe1, 0x4f, 0xbd, 0x0b, 0x79, 0x1a, 0xbe, 0xba, 0x89, 0xf7, 0xbd, 0x63, 0x59, 0xb2, 0xbd, 0xfc, 0x7a, 0x69, 0xbb, 0x4d, 0x0b, 0x08, 0xbe, 0xb4, 0xf1, 0xf3, 0x3d, 0xac, 0xec, 0x00, 0x3f, 0xb4, 0xcd, 0x6b, 0x3c, 0xb6, 0x16, 0x82, 0xbe, 0xba, 0x50, 0xcb, 0x3e, 0x43, 0x86, 0x0d, 0xbd, 0xae, 0x8b, 0xef, 0x3e, 0x14, 0x8a, 0xa8, 0x3e, 0x79, 0x09, 0xfb, 0x3d, 0xb2, 0xef, 0xc1, 0x3d, 0xf7, 0xd0, 0x01, 0x3d, 0xa3, 0xe2, 0x1c, 0x3e, 0x27, 0x9f, 0x79, 0xbe, 0xee, 0x19, 0x97, 0x3e, 0xa2, 0x81, 0x1f, 0xbe, 0xef, 0x3b, 0x81, 0x3d, 0x74, 0xd1, 0xea, 0xbe, 0x12, 0x2b, 0x3e, 0x3d, 0x8a, 0x9a, 0xf5, 0xbd, 0x0e, 0x0b, 0x80, 0x3d, 0x92, 0x53, 0x26, 0xbe, 0xe4, 0x81, 0xcd, 0x3e, 0x1d, 0x0a, 0x08, 0xbe, 0xd5, 0xc1, 0x7d, 0x3d, 0x8c, 0x8f, 0x36, 0x3e, 0x22, 0x9c, 0x8b, 0x3e, 0x56, 0xe5, 0xab, 0x3e, 0xf1, 0x8b, 0xd3, 0xbe, 0xef, 0x63, 0x68, 0x3e, 0x61, 0x07, 0xb6, 0xbd, 0x60, 0x16, 0x7c, 0x3e, 0x73, 0x02, 0xa9, 0x3d, 0xdd, 0xc2, 0xae, 0x3d, 0x82, 0xc9, 0x85, 0xbd, 0x10, 0x2a, 0xc7, 0xbe, 0x6f, 0xf2, 0xe5, 0x3e, 0x91, 0x79, 0x60, 0xbe, 0x06, 0x7d, 0x58, 0xbe, 0x15, 0x91, 0x6f, 0x3d, 0x9e, 0xa3, 0x9e, 0xbc, 0x19, 0xcb, 0x98, 0x3e, 0x88, 0x0e, 0x46, 0x3b, 0x36, 0xc5, 0x13, 0x3d, 0xac, 0x9a, 0x48, 0x3d, 0xd5, 0xb7, 0x81, 0x3e, 0x9f, 0xe1, 0xeb, 0xbd, 0xa7, 0x70, 0x0a, 0x3f, 0x4e, 0x3f, 0x7b, 0x3e, 0xc4, 0x22, 0x5f, 0xbe, 0x5f, 0xc3, 0x90, 0x3c, 0xca, 0xbd, 0x62, 0x3e, 0x13, 0x2a, 0x7d, 0xbe, 0x9c, 0x7e, 0x7f, 0x3e, 0x08, 0x0b, 0x12, 0xbe, 0x86, 0x09, 0x99, 0xbe, 0x21, 0xbf, 0xa9, 0x3b, 0x86, 0x3f, 0x8b, 0xbe, 0xd3, 0x3a, 0xbe, 0xbd, 0x89, 0xbe, 0xa1, 0x3e, 0x6b, 0xba, 0x0e, 0x3e, 0x50, 0x50, 0xa7, 0xbd, 0x21, 0xe7, 0x17, 0x3f, 0x25, 0x61, 0xb6, 0x3d, 0x55, 0x8d, 0xc6, 0xbb, 0x36, 0xec, 0xee, 0x3d, 0xc9, 0x47, 0x04, 0x3e, 0xf0, 0x3d, 0xa3, 0x3e, 0xcd, 0x33, 0x9b, 0xbe, 0x6c, 0x74, 0x94, 0x3e, 0x5f, 0x1b, 0xde, 0xbd, 0xaf, 0xfe, 0x8b, 0xbe, 0x15, 0x51, 0xe2, 0x3d, 0x21, 0x6e, 0x7e, 0x3e, 0x67, 0xa8, 0x43, 0x3e, 0x27, 0x71, 0x03, 0x3d, 0x7d, 0xa7, 0xaf, 0xbe, 0x29, 0x3f, 0xdc, 0x3c, 0x09, 0x62, 0x15, 0x3f, 0x75, 0x07, 0x59, 0xbe, 0x37, 0x56, 0x88, 0x3e, 0xab, 0xa4, 0x4d, 0xbe, 0x61, 0xdb, 0x3b, 0xbe, 0xb6, 0x57, 0xa9, 0x3d, 0xe1, 0xc3, 0x01, 0xbe, 0x04, 0xc1, 0x43, 0x3e, 0x8a, 0x16, 0x5f, 0x3e, 0x9f, 0xbd, 0x81, 0xbc, 0xa0, 0x2c, 0x48, 0xbe, 0x3d, 0x66, 0x9f, 0x3e, 0x81, 0x97, 0x5b, 0xbd, 0xe9, 0x6b, 0x32, 0xbe, 0x1f, 0xbf, 0xfe, 0xbd, 0x49, 0xf4, 0xd9, 0xbc, 0x23, 0x21, 0xa5, 0xbe, 0xc3, 0x85, 0xb6, 0x38, 0xda, 0x2f, 0xb0, 0x3e, 0xd8, 0xec, 0xff, 0x3d, 0xc4, 0xb6, 0xd0, 0xbd, 0xd8, 0x16, 0x64, 0x3d, 0xdc, 0xc1, 0x66, 0x3e, 0x6f, 0xa8, 0xc3, 0xbe, 0xcb, 0x13, 0x95, 0xbe, 0xcb, 0xcb, 0x8d, 0x3e, 0xc3, 0xd3, 0xcd, 0xbd, 0x6c, 0x92, 0x81, 0xbe, 0x63, 0x8f, 0xa8, 0xbc, 0xa5, 0x05, 0x45, 0x3e, 0xac, 0x5b, 0x83, 0x3d, 0x7d, 0x79, 0xb9, 0xbe, 0xc7, 0xe6, 0xd2, 0xbd, 0x9c, 0xbf, 0x6f, 0x3e, 0x85, 0x61, 0x6c, 0xbe, 0x9d, 0x30, 0x45, 0x3e, 0xc0, 0xe6, 0x82, 0xbe, 0x36, 0x12, 0x98, 0x3e, 0x1c, 0x83, 0xd9, 0x3d, 0x88, 0xa2, 0x85, 0x3e, 0xd5, 0x12, 0x0a, 0x3e, 0x30, 0xdd, 0x8f, 0x3b, 0xa9, 0x9e, 0xc2, 0xbd, 0x58, 0x72, 0xf1, 0x3e, 0x4b, 0xbc, 0x5c, 0xbe, 0x72, 0x99, 0x78, 0xbe, 0xce, 0x3e, 0x1f, 0x3d, 0xfa, 0x88, 0x0d, 0xbd, 0x67, 0x41, 0x4b, 0xbe, 0xe9, 0xae, 0xa2, 0xbd, 0x9f, 0xda, 0x99, 0x3d, 0xc6, 0xa8, 0xf4, 0xbd, 0x01, 0xce, 0x4b, 0x3e, 0xb0, 0xe4, 0xa3, 0x3c, 0x0d, 0xe4, 0x79, 0xbd, 0x33, 0x02, 0x82, 0xbb, 0x67, 0xac, 0x20, 0xbe, 0xa5, 0xf0, 0x3d, 0xbd, 0xe2, 0x5b, 0xe7, 0xbe, 0xa4, 0x54, 0x0d, 0x3e, 0x95, 0xd7, 0x95, 0x3e, 0x96, 0x60, 0x6c, 0x3e, 0x57, 0x57, 0x45, 0xbe, 0x5d, 0x4d, 0x15, 0xbd, 0x0f, 0x36, 0x0a, 0xbe, 0x1f, 0x0d, 0xec, 0xbb, 0x1c, 0xb4, 0x82, 0xbe, 0x42, 0xe0, 0x00, 0xbf, 0xe1, 0xd3, 0x9b, 0xbc, 0x88, 0x4d, 0x29, 0xbf, 0x12, 0x20, 0xce, 0x3e, 0x16, 0x14, 0x67, 0xbd, 0x7e, 0xef, 0xa8, 0xbd, 0xc4, 0x0e, 0x11, 0xbe, 0x78, 0xd1, 0x83, 0x3e, 0x0e, 0xf4, 0xa6, 0x3d, 0x63, 0xe9, 0xa6, 0x3e, 0xa4, 0xc6, 0x80, 0x3e, 0x3e, 0x70, 0xa1, 0x3e, 0x89, 0x4c, 0xa1, 0x3e, 0x1a, 0x22, 0x6c, 0x3e, 0xca, 0xfa, 0x00, 0xbe, 0x0b, 0xd7, 0xa5, 0x3e, 0xb9, 0x79, 0xf6, 0xbe, 0xb9, 0x6e, 0x3f, 0xbe, 0xa6, 0x70, 0xec, 0xbe, 0xe4, 0xe3, 0x12, 0x3e, 0x14, 0x2a, 0x75, 0x3e, 0xcb, 0xd9, 0x13, 0xbe, 0xdf, 0x0b, 0xab, 0xbe, 0x4e, 0x75, 0x9a, 0xbe, 0x5b, 0xc6, 0xb8, 0xbe, 0x66, 0x46, 0x57, 0xbe, 0xc2, 0xc2, 0x36, 0x3e, 0xf3, 0x76, 0x14, 0x3e, 0x5e, 0xcd, 0xf6, 0x3e, 0x28, 0x91, 0x3b, 0xbe, 0x98, 0xa6, 0x6c, 0x3d, 0x5c, 0x6e, 0x9e, 0x3e, 0x5a, 0xce, 0x9a, 0x3e, 0xf6, 0x7d, 0x39, 0xbf, 0xdf, 0xa1, 0x7c, 0xbd, 0xb3, 0x36, 0xf8, 0xbd, 0x73, 0x25, 0x02, 0xbe, 0xe1, 0xd3, 0x27, 0x3e, 0x3f, 0x0a, 0x7e, 0x3e, 0x6e, 0x61, 0x37, 0x3e, 0x18, 0x8d, 0x1e, 0x3e, 0x32, 0x1d, 0x94, 0x3e, 0x0a, 0x34, 0xa7, 0xbd, 0xd6, 0x20, 0x27, 0xbe, 0x1f, 0x72, 0x19, 0x3e, 0xe9, 0xd0, 0x8e, 0xbc, 0x3a, 0xaf, 0x1c, 0xbe, 0xcd, 0x0b, 0x30, 0x3e, 0x77, 0xb4, 0x2b, 0xbe, 0xfe, 0x20, 0xea, 0x3d, 0xf1, 0xfd, 0xac, 0x3e, 0x24, 0x92, 0x3e, 0x3c, 0x31, 0x19, 0xbe, 0x3e, 0x02, 0x3f, 0xe2, 0xbd, 0x8f, 0xe1, 0x14, 0x3e, 0x48, 0x06, 0x05, 0xbd, 0x73, 0xdc, 0x01, 0xbe, 0xb9, 0x2b, 0xa3, 0x3e, 0x77, 0x2e, 0xb1, 0x3e, 0x02, 0x6b, 0xe1, 0xbe, 0x8d, 0x6f, 0x76, 0x3e, 0x9d, 0x02, 0xcf, 0xbe, 0x6b, 0x62, 0x93, 0x3e, 0xd3, 0xa1, 0x2e, 0xbf, 0xfd, 0x99, 0xb2, 0x3c, 0x0d, 0x98, 0xb9, 0xbe, 0x59, 0x79, 0x75, 0xbe, 0xea, 0xc7, 0xeb, 0xbe, 0xfe, 0x14, 0x56, 0xbd, 0x17, 0x88, 0xbd, 0xbd, 0x0c, 0xdb, 0x0a, 0xbf, 0xb7, 0xff, 0xaa, 0x3d, 0x88, 0xa0, 0xfe, 0x3d, 0x74, 0x78, 0x12, 0xbd, 0x17, 0xa9, 0xaf, 0x3d, 0x6e, 0x6c, 0x57, 0xbd, 0x56, 0x90, 0x1d, 0xbf, 0x3e, 0xe5, 0x4b, 0x3e, 0x13, 0x08, 0x71, 0xbd, 0x16, 0x88, 0x29, 0xbe, 0xc6, 0x4a, 0x3f, 0xbe, 0x5b, 0xc8, 0x13, 0x3e, 0xd4, 0xb5, 0x09, 0x3f, 0x71, 0x53, 0xbc, 0x3d, 0x89, 0x1c, 0x04, 0x3f, 0xaf, 0x23, 0xb3, 0xbd, 0x7b, 0xdd, 0x2b, 0xbd, 0xb9, 0xf9, 0x9e, 0x3d, 0x95, 0xd7, 0x26, 0xbd, 0x2d, 0x96, 0x95, 0x3e, 0x3f, 0xce, 0xd9, 0x3d, 0x3a, 0x30, 0x14, 0xbe, 0x08, 0xf2, 0xcd, 0xbd, 0x84, 0x1f, 0x2f, 0x3d, 0xff, 0x55, 0x0a, 0x3c, 0x98, 0x6b, 0xe1, 0xbe, 0x9f, 0xbe, 0xcf, 0xbd, 0x71, 0x01, 0xa7, 0xbe, 0x15, 0x19, 0x82, 0xbe, 0x7d, 0x6f, 0xd7, 0x3e, 0x96, 0xe1, 0x45, 0x3c, 0xc4, 0x98, 0x6c, 0x3d, 0xa1, 0x2b, 0xd1, 0x3c, 0x37, 0x4b, 0x5d, 0xbe, 0xe3, 0x98, 0x70, 0x3e, 0x23, 0xb1, 0x01, 0x3e, 0xfb, 0xf4, 0x29, 0x3e, 0x22, 0xaa, 0xbd, 0xbc, 0xbb, 0x0a, 0xb8, 0x3d, 0x51, 0x20, 0xe1, 0xbe, 0x5e, 0xdc, 0xed, 0x3d, 0x83, 0x4f, 0x37, 0x3c, 0xd4, 0xf1, 0x20, 0xbd, 0xb0, 0x70, 0x9e, 0xbe, 0x5a, 0x8e, 0xc8, 0x3e, 0xf1, 0x8e, 0x19, 0xbf, 0xfa, 0xf6, 0xb4, 0x3d, 0xbe, 0xc6, 0xb4, 0xbe, 0x76, 0x63, 0x1a, 0x3e, 0x84, 0x8d, 0xdb, 0x3c, 0xa2, 0xcc, 0xb5, 0xbe, 0xab, 0xb3, 0x17, 0xbf, 0xc8, 0xdf, 0x94, 0xbe, 0x1f, 0xaf, 0x29, 0xbd, 0xe5, 0x0e, 0x40, 0x3e, 0xce, 0x40, 0x18, 0xbc, 0x94, 0xd2, 0xe5, 0xbd, 0x20, 0x01, 0x19, 0xbf, 0x13, 0x9b, 0x12, 0x3c, 0x29, 0x6a, 0x11, 0x3e, 0xaa, 0x1c, 0x69, 0xbe, 0x74, 0x95, 0xa1, 0x3d, 0x73, 0xcb, 0xe4, 0xbe, 0x66, 0x07, 0x32, 0x3d, 0xc9, 0x0e, 0xe6, 0x3c, 0x6e, 0x1d, 0x67, 0xbd, 0xa5, 0xd6, 0x1a, 0xbe, 0x11, 0x78, 0xdd, 0xbd, 0xe1, 0xc2, 0x56, 0xbe, 0xc5, 0x18, 0xd0, 0xbe, 0xff, 0x64, 0x37, 0xbe, 0xa3, 0xe3, 0xa3, 0xbd, 0x47, 0xae, 0x85, 0x3e, 0x53, 0x0f, 0xfe, 0x3d, 0x56, 0x8c, 0x10, 0x3e, 0x32, 0x0c, 0x31, 0x3e, 0x9a, 0x77, 0x34, 0x3c, 0xd0, 0x02, 0x61, 0xbb, 0x83, 0xb3, 0xe8, 0x3e, 0xe4, 0x50, 0xbd, 0xbd, 0x98, 0x72, 0x3a, 0xbe, 0xed, 0x71, 0xb7, 0xbd, 0x8e, 0x06, 0xf0, 0xbe, 0x90, 0xe2, 0x03, 0x3d, 0x71, 0xd5, 0x57, 0x3e, 0x4b, 0x6f, 0xd6, 0x3d, 0xf5, 0x63, 0x6d, 0xbe, 0x15, 0x56, 0x08, 0xbb, 0x20, 0x31, 0x0e, 0x3d, 0x3a, 0x10, 0x50, 0x3e, 0x45, 0x7b, 0x28, 0x3d, 0x64, 0x48, 0x43, 0x3e, 0x6c, 0x1a, 0x95, 0xbe, 0xf8, 0x92, 0x0d, 0xbe, 0xf9, 0xb2, 0x05, 0xbf, 0x13, 0x73, 0x64, 0x3e, 0x07, 0x4c, 0xbf, 0xbd, 0x3d, 0x34, 0x34, 0xbe, 0xa4, 0x89, 0x3f, 0xbd, 0xf7, 0xb0, 0xd0, 0xbd, 0x3e, 0xe8, 0x49, 0x3c, 0xb9, 0xb6, 0x57, 0x3e, 0x9e, 0x0f, 0x62, 0x3d, 0x0b, 0x3f, 0x87, 0xbb, 0x17, 0x48, 0x0a, 0x3e, 0xc9, 0x77, 0x53, 0xbe, 0xba, 0xb3, 0xb9, 0xbd, 0x93, 0x6e, 0x4e, 0x3e, 0xcd, 0x4f, 0x95, 0xbd, 0x52, 0x56, 0xcb, 0xbb, 0xfa, 0x26, 0xc0, 0x3d, 0x2e, 0x0e, 0x14, 0xbe, 0xee, 0x10, 0xb7, 0x3d, 0x20, 0x79, 0x7d, 0xbd, 0x86, 0xcd, 0x4f, 0xbe, 0x70, 0x27, 0x1a, 0xbe, 0x2b, 0x7b, 0x3c, 0x3c, 0x8d, 0xd2, 0x16, 0x3d, 0xd8, 0x7d, 0x35, 0x3d, 0xa2, 0x27, 0x84, 0xbd, 0x66, 0xc0, 0x6f, 0xbd, 0x41, 0x70, 0xb0, 0xbd, 0x48, 0x6c, 0x63, 0xbe, 0x4d, 0x36, 0x0d, 0x3d, 0x3f, 0xbd, 0x76, 0xbe, 0x7c, 0x82, 0x62, 0xbd, 0xc3, 0xd0, 0x42, 0xbd, 0x41, 0xd0, 0x2f, 0xbe, 0x94, 0x7b, 0x80, 0xbe, 0xa5, 0xe0, 0x27, 0xbe, 0x40, 0xdc, 0x54, 0x3e, 0x9a, 0x14, 0xa2, 0xbc, 0x09, 0x5b, 0x79, 0xbb, 0x94, 0x37, 0x97, 0xbd, 0x49, 0x8f, 0x43, 0xbd, 0x20, 0x23, 0x1c, 0x3e, 0xcc, 0x80, 0x18, 0xbd, 0xb7, 0x67, 0x81, 0xbd, 0x23, 0xcb, 0xcb, 0xbd, 0xbf, 0x9e, 0xb0, 0x3d, 0xfb, 0xc8, 0x2f, 0xbe, 0xfe, 0xc9, 0x25, 0xbe, 0xa0, 0x9b, 0x64, 0xbe, 0xa1, 0x65, 0xd4, 0x3c, 0xad, 0xd3, 0x2e, 0xbe, 0x4b, 0x17, 0xe9, 0x3c, 0x02, 0x8a, 0x15, 0x3e, 0x27, 0x30, 0x11, 0xbe, 0x22, 0x9e, 0x17, 0x3d, 0xbf, 0xcf, 0x48, 0xbd, 0x5e, 0xba, 0x08, 0xbc, 0x6e, 0xb6, 0x3d, 0xbe, 0xb6, 0x4c, 0x6e, 0xbc, 0x0c, 0xd4, 0x2f, 0xbe, 0x9c, 0x79, 0xdd, 0xbd, 0x05, 0xac, 0xc9, 0x3d, 0x39, 0x6c, 0xee, 0x3d, 0x12, 0x81, 0x9c, 0x3d, 0xb0, 0xe6, 0xc4, 0xbe, 0xe9, 0x7f, 0x38, 0x3f, 0xb2, 0x7e, 0x58, 0x3e, 0x8a, 0x02, 0x0b, 0x3f, 0xa8, 0x21, 0x75, 0xbf, 0x60, 0x8b, 0x9d, 0xbc, 0x0a, 0xa4, 0xf2, 0x3d, 0x91, 0x97, 0x52, 0xbe, 0x92, 0x1c, 0xaf, 0x3c, 0xde, 0xd7, 0xe7, 0xbd, 0xe5, 0xae, 0xa2, 0xbe, 0x7b, 0x4e, 0xae, 0x3e, 0x02, 0xb0, 0x00, 0x3d, 0x6d, 0x30, 0xc3, 0x3e, 0xab, 0x08, 0x14, 0x3e, 0x7e, 0xe8, 0x11, 0xbe, 0x55, 0x67, 0x91, 0x3e, 0xee, 0xa9, 0x4c, 0x3e, 0x27, 0xdb, 0xc9, 0x3e, 0x14, 0xa9, 0x82, 0x3e, 0xa4, 0xec, 0x69, 0x3e, 0xc2, 0xec, 0x4d, 0x3b, 0x32, 0x3e, 0x84, 0xbe, 0x98, 0x2b, 0x3e, 0xbe, 0xf0, 0xee, 0xf3, 0x3d, 0x42, 0x2e, 0xd1, 0x3e, 0xda, 0x74, 0x9a, 0xbe, 0x82, 0x9f, 0xa5, 0x3e, 0xa1, 0xd7, 0x0d, 0x3e, 0x96, 0x2e, 0xb0, 0xbe, 0x00, 0x4f, 0x22, 0x3e, 0xee, 0x27, 0x05, 0x3e, 0x93, 0xe6, 0xac, 0xbe, 0xc8, 0x36, 0x24, 0xbd, 0xef, 0x19, 0xdd, 0xbd, 0x76, 0xa8, 0x17, 0x3e, 0x72, 0x93, 0x60, 0xbd, 0xe4, 0x9d, 0x6b, 0x3d, 0x68, 0xdb, 0xe9, 0xbe, 0xeb, 0x9a, 0x7d, 0xbd, 0x77, 0x62, 0xb4, 0xbe, 0xd6, 0x52, 0xcc, 0xbe, 0x0e, 0xb2, 0xb9, 0xbd, 0x17, 0x10, 0x5a, 0x3e, 0x84, 0x86, 0x47, 0xbe, 0x40, 0x44, 0xfe, 0xbd, 0xd7, 0xb0, 0x8d, 0x3e, 0x65, 0x8d, 0xea, 0x3d, 0x1b, 0x12, 0xca, 0xbd, 0xeb, 0xdb, 0x0f, 0x3d, 0xef, 0xd8, 0x9d, 0x3e, 0xdd, 0xce, 0xcf, 0xbe, 0x2f, 0x65, 0x12, 0xbe, 0xc5, 0xa9, 0x16, 0x3f, 0x9a, 0xc9, 0x23, 0x3d, 0x19, 0x11, 0x42, 0xbe, 0x91, 0xad, 0x03, 0x3e, 0x30, 0xb7, 0x2f, 0x3e, 0xdf, 0x7f, 0xa6, 0x3d, 0xa0, 0xf5, 0xd8, 0x3d, 0x15, 0x5c, 0xed, 0x3e, 0x51, 0x5b, 0x51, 0x3e, 0x4c, 0xf0, 0x81, 0xbe, 0x5b, 0x48, 0x72, 0x3d, 0x6c, 0x71, 0x90, 0xbe, 0x28, 0x3f, 0xbe, 0xbc, 0x56, 0xb7, 0x25, 0x3e, 0x12, 0xbb, 0xb3, 0x3e, 0x23, 0x94, 0x4d, 0xbb, 0x5e, 0x96, 0xef, 0xbd, 0x97, 0xd2, 0xb1, 0xbd, 0x37, 0x82, 0x24, 0x3e, 0x11, 0x25, 0xfa, 0x3d, 0x96, 0x8e, 0x84, 0x3d, 0x72, 0x34, 0xbf, 0x3d, 0x70, 0x16, 0xfc, 0x3b, 0x2e, 0xb5, 0xab, 0xbb, 0x73, 0xd0, 0x61, 0x3e, 0x75, 0xf9, 0x13, 0x3d, 0x49, 0x01, 0x87, 0x3d, 0x08, 0x82, 0x8b, 0x3e, 0xe3, 0xad, 0x9f, 0x3d, 0x82, 0x21, 0xaa, 0x3e, 0xd6, 0xaa, 0xc0, 0xbe, 0x0b, 0xbd, 0xb0, 0x3e, 0xd8, 0xf2, 0xf3, 0xbe, 0x79, 0xe4, 0xc2, 0x3e, 0x6a, 0x12, 0xe2, 0xbe, 0xc1, 0x09, 0xa4, 0x3e, 0xb9, 0xb2, 0x80, 0xbe, 0x06, 0xad, 0x98, 0x3c, 0xb9, 0x5e, 0xae, 0x3d, 0x20, 0x9a, 0xed, 0xbe, 0xb3, 0x07, 0x74, 0x3e, 0x30, 0x35, 0x4c, 0xbd, 0xed, 0xf8, 0xf5, 0xbc, 0x6b, 0xe3, 0x73, 0xbe, 0x41, 0x80, 0xe4, 0x3d, 0x70, 0x29, 0x16, 0x3e, 0x7f, 0x38, 0x63, 0x3e, 0x26, 0x23, 0xd6, 0xbd, 0xe1, 0xda, 0xfe, 0xbd, 0x65, 0x5d, 0x94, 0xbe, 0x99, 0xc6, 0x29, 0x3e, 0xdc, 0x99, 0x84, 0x3e, 0x70, 0x73, 0x0b, 0xbf, 0xc6, 0x32, 0x2f, 0x3d, 0xad, 0xa2, 0x01, 0xbe, 0xad, 0x01, 0x88, 0xbe, 0xcf, 0x59, 0xf5, 0x3d, 0x3f, 0x33, 0xc5, 0x3c, 0x83, 0xfd, 0x21, 0x3d, 0x9d, 0x5f, 0xa4, 0xbe, 0x65, 0x19, 0xdb, 0xbd, 0x16, 0x76, 0x60, 0xbe, 0x7c, 0x59, 0x47, 0x3d, 0x33, 0x87, 0x69, 0xbe, 0x9e, 0x3b, 0xc9, 0x3e, 0xea, 0x01, 0xb3, 0x3e, 0x2b, 0x5b, 0x00, 0xbd, 0xc2, 0x00, 0x6a, 0x3d, 0x71, 0x07, 0xe0, 0x3e, 0x0b, 0x0a, 0xa5, 0x3e, 0xe7, 0x1e, 0x83, 0xbe, 0xca, 0xd5, 0x53, 0x3d, 0x65, 0x09, 0xd1, 0x3e, 0x89, 0x95, 0x18, 0x3f, 0x88, 0x3a, 0xca, 0xbe, 0xcc, 0x51, 0x3a, 0x3e, 0xa3, 0x90, 0x80, 0x3e, 0x51, 0x8f, 0xfd, 0xbd, 0x63, 0xcc, 0x06, 0x3e, 0xdb, 0x95, 0xca, 0x3e, 0xa4, 0x5d, 0xcb, 0x3d, 0x3b, 0xe8, 0xae, 0x3d, 0x17, 0x3e, 0xd4, 0x3d, 0xd3, 0xcd, 0x94, 0x3e, 0xe6, 0x27, 0x83, 0x3e, 0x0e, 0xd3, 0x66, 0xbe, 0x13, 0x30, 0xb0, 0x3e, 0xbb, 0x43, 0x83, 0xbe, 0x1e, 0x9b, 0x84, 0x3e, 0x13, 0xd6, 0x28, 0x3e, 0x0b, 0x7b, 0x1b, 0xbe, 0x57, 0x5d, 0x21, 0x3e, 0x6a, 0x0c, 0xd3, 0x3d, 0xb3, 0xa1, 0x56, 0x3d, 0xdf, 0x2d, 0x1e, 0xbc, 0xac, 0x9f, 0x8e, 0xbe, 0x6f, 0xea, 0xff, 0xbd, 0x1a, 0x4d, 0xe8, 0x3e, 0x00, 0xc8, 0xf2, 0xbd, 0x0e, 0x6f, 0x95, 0x3e, 0x90, 0xfd, 0xd0, 0x3e, 0xf6, 0x29, 0x4f, 0xbd, 0xaf, 0xc6, 0xb9, 0xbe, 0x2b, 0x5b, 0xb6, 0xbd, 0x0d, 0x65, 0x3f, 0x3e, 0xa8, 0x90, 0x44, 0xbe, 0x0c, 0xdc, 0xa3, 0x3c, 0xe2, 0xcb, 0x89, 0x3e, 0x27, 0x61, 0x87, 0x3e, 0x13, 0x52, 0x89, 0xbd, 0xa5, 0x73, 0x7b, 0x3e, 0xa2, 0xac, 0x64, 0xbe, 0x13, 0x95, 0xa6, 0xbd, 0x15, 0x8f, 0x2b, 0x3e, 0xce, 0xb1, 0x75, 0x3e, 0x01, 0x5d, 0x0f, 0xbe, 0xb2, 0xeb, 0x37, 0x3e, 0x38, 0xbe, 0x22, 0xbe, 0x1b, 0x0b, 0x8b, 0x3d, 0xe1, 0xf1, 0xe0, 0x3e, 0xcd, 0xfd, 0x3a, 0xbc, 0x5c, 0x01, 0x07, 0x3f, 0xab, 0x6c, 0x7e, 0xbe, 0xec, 0x07, 0xf9, 0xbc, 0x46, 0x11, 0x71, 0x3e, 0x5e, 0xa9, 0x7c, 0x3d, 0x06, 0xba, 0x13, 0x3d, 0x14, 0xb0, 0x33, 0x3e, 0x98, 0x7c, 0x19, 0xbf, 0xf8, 0x10, 0x3c, 0x3e, 0xca, 0x15, 0xe4, 0xbe, 0xde, 0x6d, 0xc1, 0x3d, 0x71, 0xbb, 0x04, 0xbf, 0x49, 0x02, 0x69, 0xbd, 0x60, 0x1c, 0x94, 0xbe, 0x51, 0x89, 0x1b, 0xbe, 0xc1, 0xb3, 0xd2, 0xbd, 0xdc, 0xaa, 0x32, 0x3d, 0xb0, 0xea, 0x9a, 0xbe, 0x98, 0xa9, 0x35, 0xbf, 0x9d, 0x6a, 0xce, 0x3d, 0x7c, 0xbb, 0x3e, 0x3e, 0xb2, 0x46, 0xd6, 0x3e, 0x80, 0xe5, 0x7d, 0x3e, 0xff, 0x1c, 0x9c, 0x3d, 0x21, 0x30, 0x8f, 0xbe, 0xce, 0x93, 0x2b, 0x3e, 0x1f, 0xa6, 0x97, 0x3e, 0x0a, 0xd1, 0x7a, 0xbd, 0xa7, 0xb9, 0xf1, 0xbe, 0xb1, 0xf7, 0x55, 0xbe, 0x48, 0x36, 0xb3, 0xbd, 0x7a, 0xce, 0xed, 0x3d, 0xa5, 0x50, 0xc7, 0xbc, 0xa5, 0x44, 0x84, 0xbe, 0x7e, 0x30, 0x8b, 0x3e, 0xce, 0x16, 0x61, 0x3e, 0xe5, 0xb9, 0x83, 0x3e, 0xfc, 0xec, 0x53, 0xbe, 0x87, 0x10, 0x34, 0xbe, 0x9f, 0x2f, 0x2b, 0xbd, 0x2f, 0xff, 0xbb, 0x3e, 0x72, 0x4c, 0x97, 0xbe, 0x69, 0xaf, 0xb2, 0x3d, 0x9a, 0x31, 0x25, 0xbe, 0x87, 0x80, 0x54, 0xba, 0xd5, 0x8b, 0xc4, 0x3c, 0x59, 0x11, 0x6a, 0xbe, 0xc8, 0x1b, 0xa6, 0xbe, 0xee, 0x0a, 0xa1, 0x3e, 0x12, 0x0e, 0xda, 0x3d, 0x60, 0xa4, 0xab, 0x3e, 0xb5, 0xf5, 0xf2, 0x3d, 0xa2, 0x47, 0x53, 0x3e, 0x25, 0x8a, 0xb9, 0x3e, 0xd5, 0x1e, 0xfc, 0xbe, 0xef, 0xeb, 0xf6, 0xbd, 0xe3, 0xa5, 0x3f, 0x3c, 0xd4, 0xcf, 0x32, 0x3e, 0x17, 0xae, 0x4d, 0x3e, 0x94, 0x3f, 0x0a, 0xbb, 0xe1, 0xf7, 0xbf, 0xbe, 0xb9, 0x1d, 0x77, 0xbd, 0x7b, 0x4f, 0x71, 0xbf, 0x54, 0xaf, 0x99, 0x3e, 0x46, 0xd5, 0x54, 0x3d, 0x99, 0x85, 0x1f, 0xbe, 0xd8, 0xcc, 0xf8, 0x3e, 0x56, 0xcf, 0xab, 0x3c, 0x72, 0x58, 0xb7, 0x3e, 0x99, 0xe2, 0x6e, 0xbd, 0x3e, 0x78, 0x0e, 0xbe, 0x45, 0x5f, 0xd0, 0x3d, 0x24, 0xce, 0x34, 0x3d, 0x4b, 0x24, 0x44, 0x3e, 0x64, 0x54, 0x1c, 0x3e, 0x26, 0xef, 0x6e, 0x3e, 0x5b, 0x66, 0x37, 0x3e, 0x45, 0x8f, 0xe8, 0xbd, 0x2b, 0x00, 0xb1, 0x3e, 0xdb, 0xc9, 0xec, 0x3e, 0x51, 0xc7, 0xb2, 0x3e, 0x09, 0xe0, 0xac, 0xbe, 0xb8, 0x54, 0x58, 0xbd, 0x69, 0x01, 0x42, 0xbd, 0x08, 0xc8, 0x7c, 0x3e, 0x71, 0x59, 0x4f, 0x3e, 0x30, 0xfd, 0x32, 0xbe, 0x0e, 0x1d, 0x92, 0x3e, 0x07, 0x2f, 0x90, 0xbd, 0x75, 0x17, 0x8c, 0x3e, 0x82, 0xb9, 0x7a, 0x3d, 0x4c, 0x89, 0x57, 0x3e, 0xf2, 0x06, 0x55, 0x3e, 0x92, 0x72, 0xbb, 0xbc, 0x69, 0xd0, 0x0e, 0x3e, 0xf7, 0x27, 0x61, 0x3e, 0x6b, 0xab, 0x75, 0xbe, 0x11, 0xd8, 0x4a, 0xbd, 0x43, 0x31, 0xe2, 0x3e, 0x69, 0xe0, 0x30, 0xbe, 0x9b, 0xb0, 0x4b, 0x3e, 0xa8, 0xeb, 0xd4, 0xbe, 0x0c, 0x74, 0x33, 0x3e, 0xfe, 0x98, 0x0e, 0x3e, 0xa8, 0xd3, 0x70, 0x3e, 0x01, 0xab, 0xa0, 0x3d, 0xbb, 0xd9, 0x6e, 0x3e, 0xa5, 0xd6, 0x18, 0xbe, 0x99, 0xf6, 0x92, 0x3d, 0xca, 0x03, 0x47, 0xbe, 0x20, 0x5a, 0xa0, 0x3c, 0x04, 0xa3, 0xdd, 0xbe, 0x56, 0x57, 0x0e, 0x3e, 0x90, 0xd9, 0x90, 0xbe, 0xcf, 0x4c, 0x5e, 0x3e, 0xde, 0x64, 0x56, 0xbe, 0xb4, 0xfb, 0xc1, 0xbd, 0x92, 0x42, 0x87, 0xbe, 0xbb, 0x81, 0xab, 0xbd, 0x24, 0x16, 0x55, 0x3e, 0x44, 0xfb, 0x83, 0x3e, 0x88, 0xab, 0x6b, 0xbc, 0x2b, 0x56, 0x76, 0x3e, 0xe8, 0x7a, 0xa3, 0x3e, 0xfd, 0x8d, 0xb4, 0xbe, 0xe7, 0x29, 0xed, 0xbd, 0xc2, 0x0b, 0x96, 0xbe, 0x08, 0x18, 0xc3, 0xbe, 0xa0, 0x0b, 0x83, 0x3e, 0xff, 0xfe, 0xa7, 0x3e, 0x95, 0x95, 0xf5, 0x3e, 0x06, 0x79, 0x35, 0x3e, 0x66, 0x95, 0xf4, 0x3d, 0x06, 0xf5, 0x16, 0xbd, 0xb4, 0x55, 0x21, 0xbd, 0xda, 0x4c, 0x7c, 0xbe, 0x63, 0x3d, 0xfe, 0xbe, 0x6f, 0xdd, 0x1c, 0x3e, 0xaa, 0x7a, 0x95, 0x3d, 0x1b, 0x93, 0x8c, 0x3d, 0x56, 0x9b, 0x80, 0xbe, 0xed, 0x03, 0xac, 0x3e, 0x39, 0x05, 0xc9, 0xbd, 0x54, 0xd2, 0x00, 0xbf, 0x73, 0xd0, 0xc4, 0xbd, 0xe0, 0x44, 0xaf, 0x3e, 0x3a, 0xe9, 0x25, 0x3e, 0xe2, 0xcd, 0xa7, 0xbd, 0x05, 0xda, 0x85, 0xbe, 0x4d, 0x53, 0x42, 0xbe, 0x45, 0xc4, 0x72, 0x3e, 0xfa, 0x6f, 0x8f, 0x3e, 0xfe, 0x8b, 0x72, 0xbe, 0x30, 0x5a, 0xd1, 0x3d, 0x83, 0x90, 0x81, 0x3c, 0x8b, 0xfa, 0x85, 0xbe, 0xa6, 0xc2, 0x26, 0xbf, 0x24, 0xcb, 0xaf, 0xbe, 0x3e, 0xfe, 0xa3, 0xbe, 0x9f, 0x8b, 0x36, 0x3f, 0x54, 0x95, 0x1d, 0xbe, 0x4f, 0xee, 0x14, 0x3f, 0x9b, 0x6e, 0xfd, 0xbd, 0x4d, 0x3b, 0x3a, 0x3c, 0x5b, 0x8c, 0x30, 0x3e, 0xe8, 0x8b, 0x90, 0x3e, 0x6d, 0xb6, 0xd6, 0x3e, 0xaf, 0x07, 0xee, 0x3d, 0x16, 0xac, 0x03, 0xbf, 0x3e, 0x82, 0xd5, 0x3d, 0x3e, 0x18, 0x90, 0x3e, 0xeb, 0x44, 0x72, 0x3e, 0x27, 0x1a, 0x0c, 0x3f, 0xb2, 0x63, 0x1b, 0x3e, 0x1c, 0xc4, 0x59, 0x3e, 0x26, 0xe0, 0x73, 0xbe, 0xa4, 0x27, 0x4d, 0xbd, 0x3d, 0x61, 0x93, 0x3d, 0x29, 0x08, 0xbe, 0x3e, 0xe7, 0xf4, 0x28, 0x3e, 0x67, 0x02, 0x73, 0xbd, 0xc7, 0x96, 0x3d, 0x3e, 0xc8, 0x7c, 0xa1, 0x3e, 0x09, 0x3a, 0x1d, 0x3d, 0xd2, 0x90, 0xb7, 0xbe, 0xfc, 0xd8, 0x73, 0x3e, 0xfe, 0x2f, 0xb0, 0x3c, 0x3f, 0xde, 0xb0, 0x3d, 0xf2, 0xee, 0x76, 0x3e, 0x84, 0xc4, 0x83, 0x3e, 0xfb, 0xa7, 0x19, 0x3e, 0xe5, 0xa6, 0x1f, 0xbe, 0x4b, 0xa9, 0x89, 0x3d, 0x47, 0x0c, 0x6d, 0xbd, 0x5a, 0x8a, 0x13, 0x3d, 0xb7, 0x9a, 0x93, 0xbe, 0x76, 0xa6, 0x72, 0x3e, 0x7a, 0x6f, 0x80, 0xbe, 0x23, 0xc1, 0x5f, 0xbe, 0xba, 0x94, 0x26, 0xbe, 0xc0, 0x74, 0x83, 0x3e, 0xcc, 0x1c, 0xb2, 0xbe, 0x47, 0x8f, 0xbc, 0xbd, 0x5e, 0x4e, 0xe6, 0x3d, 0x5a, 0x5f, 0xd2, 0x3e, 0x26, 0x37, 0x01, 0xbf, 0x69, 0x47, 0xfb, 0xbc, 0xa0, 0x91, 0x03, 0x3e, 0x09, 0x95, 0xfa, 0xbe, 0xcc, 0x98, 0x83, 0x3e, 0xf8, 0xfa, 0xdc, 0xbe, 0x8d, 0x45, 0x48, 0xbe, 0xfe, 0xd8, 0xd8, 0x3b, 0xe7, 0xdd, 0xbc, 0xbe, 0xfe, 0xcc, 0xa8, 0x3e, 0x26, 0x78, 0x13, 0x3e, 0x51, 0x32, 0x67, 0x3e, 0x2a, 0xa0, 0xa7, 0x3d, 0x00, 0xd8, 0xbe, 0xbe, 0x73, 0xb2, 0x0f, 0xbe, 0x37, 0x10, 0x04, 0xbe, 0x24, 0xff, 0x2e, 0xbe, 0x47, 0x3f, 0x99, 0x3e, 0xd6, 0x91, 0xcb, 0x3d, 0xad, 0x1b, 0x91, 0xbd, 0xdb, 0xd9, 0x9e, 0x3d, 0xd2, 0x63, 0xcd, 0xbe, 0x0b, 0x77, 0x85, 0xbe, 0x5d, 0x5b, 0x57, 0xbe, 0xe1, 0x3a, 0x79, 0x3c, 0x85, 0x92, 0x35, 0xbe, 0xc7, 0x66, 0x09, 0xbf, 0xb6, 0x3e, 0x16, 0x3d, 0x7b, 0x77, 0x08, 0xbe, 0x8e, 0xdb, 0x01, 0xbe, 0x47, 0x91, 0xbc, 0xbe, 0xd0, 0x73, 0xe4, 0x3e, 0xbc, 0xd4, 0x6c, 0xbc, 0x1b, 0x18, 0xd5, 0xbd, 0xa6, 0x5e, 0x59, 0xbe, 0x4c, 0x82, 0xd1, 0xbd, 0x23, 0xb0, 0xc1, 0x3d, 0xb0, 0x73, 0x5c, 0x3e, 0x2b, 0x92, 0x25, 0x3e, 0xc9, 0x44, 0x8d, 0x3e, 0x70, 0xf1, 0xb5, 0x3d, 0xf8, 0x60, 0x0b, 0xbe, 0x04, 0x24, 0x27, 0x3f, 0x6a, 0xc3, 0xbd, 0x3e, 0x72, 0x20, 0xc0, 0xbc, 0xc2, 0xa0, 0xfb, 0x3e, 0xe1, 0xcb, 0x23, 0x3d, 0x89, 0x18, 0x27, 0x3f, 0x01, 0x10, 0x06, 0xbf, 0x3c, 0x2b, 0xfd, 0x3d, 0x9b, 0x95, 0xe6, 0xbd, 0x74, 0x8c, 0x70, 0x3e, 0x40, 0xb8, 0x09, 0x3e, 0xef, 0xe5, 0x29, 0xbf, 0x4d, 0x06, 0x8f, 0xbe, 0x53, 0xf1, 0xe6, 0xbe, 0x22, 0x85, 0x51, 0x3d, 0x88, 0xd3, 0x84, 0x3e, 0xea, 0xce, 0xe8, 0x3e, 0x39, 0xaa, 0x94, 0x3e, 0x77, 0x5c, 0xcb, 0x3e, 0x8a, 0x75, 0x03, 0xbd, 0xf3, 0x42, 0xb9, 0x3e, 0x59, 0x92, 0xeb, 0xbd, 0xa8, 0x00, 0xf6, 0xbe, 0x37, 0x7f, 0x50, 0x3e, 0xd4, 0x63, 0xbb, 0x3d, 0x9f, 0x1f, 0x21, 0xbd, 0xa1, 0x00, 0xbe, 0xbc, 0x73, 0x2e, 0xa2, 0xbe, 0xa1, 0x7a, 0xd3, 0xbe, 0xc2, 0x88, 0x80, 0xbe, 0xbf, 0x73, 0xc7, 0xbe, 0xd7, 0x9b, 0xa2, 0x3e, 0x22, 0x7c, 0x4e, 0x3e, 0x4f, 0x6d, 0xec, 0x3d, 0xbe, 0x19, 0x3d, 0x3e, 0x1b, 0xf8, 0x83, 0x3e, 0x69, 0xc9, 0x19, 0x3e, 0xaa, 0x74, 0xe5, 0xbc, 0x83, 0xf9, 0x14, 0xbf, 0xa7, 0x2c, 0x42, 0xbd, 0x88, 0xb5, 0x06, 0xbf, 0x4a, 0x8d, 0x82, 0xbe, 0x84, 0xc6, 0xda, 0xbe, 0xe1, 0x76, 0x6c, 0xbe, 0xce, 0x20, 0x04, 0x3e, 0x86, 0xa1, 0xcc, 0xbd, 0xe2, 0xed, 0x39, 0x3e, 0xe9, 0x8d, 0x2c, 0xbe, 0x04, 0x59, 0x0a, 0xbe, 0xa7, 0x89, 0x64, 0xbd, 0x27, 0xe1, 0x81, 0x3d, 0x8d, 0xd0, 0x38, 0xbe, 0x8f, 0x2f, 0xf1, 0xbd, 0xf3, 0xe2, 0x30, 0xbd, 0x6a, 0x10, 0x66, 0x3e, 0xd9, 0xec, 0xbe, 0x3d, 0x50, 0xd8, 0xa8, 0xbe, 0x4d, 0x25, 0xaa, 0xb8, 0xb4, 0xe8, 0xc8, 0xbd, 0x3a, 0x69, 0x81, 0xbe, 0x30, 0x80, 0x41, 0x3e, 0x6b, 0x33, 0x05, 0x3e, 0xbb, 0x8a, 0x83, 0x3e, 0x32, 0x99, 0x9f, 0x3d, 0xd2, 0x79, 0x5c, 0x3e, 0xcb, 0xf6, 0x78, 0x3d, 0xb1, 0x7e, 0xda, 0x3e, 0xfb, 0x02, 0xbf, 0xbe, 0x94, 0xbf, 0x37, 0x3f, 0xcf, 0x80, 0x91, 0xbe, 0xbf, 0x12, 0x9a, 0x3d, 0x85, 0x77, 0x6b, 0x3e, 0x1c, 0xc4, 0x76, 0xbe, 0xb7, 0xc7, 0x9f, 0xbc, 0x11, 0xe1, 0xe8, 0xbe, 0xbb, 0xdf, 0x53, 0x3d, 0xd7, 0xfb, 0x9a, 0x3e, 0x10, 0xba, 0x3c, 0xbc, 0xc3, 0x12, 0x8c, 0x3c, 0xc5, 0x92, 0x82, 0xbe, 0x8d, 0xf6, 0xed, 0x3e, 0xb0, 0xd4, 0x15, 0xbe, 0xb9, 0x1b, 0xe2, 0x3d, 0x3b, 0x85, 0xa3, 0xbd, 0x63, 0x8e, 0x69, 0x3e, 0x0e, 0xce, 0xcd, 0xbd, 0x4f, 0x88, 0x83, 0xbd, 0x55, 0x10, 0x1b, 0x3e, 0x26, 0xf4, 0x33, 0x3e, 0x86, 0x56, 0xc7, 0xbd, 0x3a, 0x77, 0xd2, 0x3b, 0x95, 0x70, 0xc6, 0xbd, 0xd3, 0x69, 0xed, 0xbd, 0xb3, 0x9a, 0x3a, 0x3d, 0x63, 0xa8, 0x8d, 0x3e, 0x06, 0xe6, 0x4a, 0x3d, 0xda, 0x1c, 0xe4, 0xbd, 0x5f, 0x60, 0xdb, 0x3d, 0x27, 0xc7, 0x06, 0xbe, 0x4c, 0x53, 0x33, 0x3e, 0x34, 0x56, 0x08, 0xbe, 0x21, 0x40, 0x9f, 0xbe, 0x5f, 0x57, 0x53, 0xbe, 0x7e, 0xee, 0xb1, 0xbe, 0x8d, 0x83, 0xe1, 0x3e, 0xa0, 0x76, 0x7d, 0xbe, 0x96, 0x0f, 0x26, 0xbe, 0xee, 0xe0, 0x43, 0x3d, 0xef, 0x87, 0x48, 0xbd, 0x9d, 0x59, 0x69, 0xbe, 0xae, 0x5e, 0x9f, 0x3e, 0xdd, 0xb2, 0xb0, 0xbd, 0x00, 0x6f, 0x14, 0x3f, 0x3d, 0xf0, 0x88, 0x3e, 0x90, 0xd4, 0x30, 0x3e, 0x05, 0xf1, 0xc2, 0xbd, 0xb2, 0xd1, 0xc6, 0x3c, 0x91, 0x71, 0xa7, 0xbe, 0xae, 0x02, 0x4e, 0xbe, 0x63, 0x63, 0xcc, 0x3d, 0x63, 0x2d, 0x98, 0x3e, 0x67, 0x65, 0x43, 0x3e, 0x78, 0xf1, 0x1f, 0x3e, 0x34, 0x81, 0x9c, 0xbe, 0xed, 0x1c, 0xa2, 0x3d, 0x3b, 0xb4, 0xc1, 0x3d, 0xb5, 0xca, 0x0f, 0xbe, 0x8d, 0xe1, 0x57, 0x3e, 0xd7, 0x05, 0x20, 0x3e, 0x66, 0xbe, 0xff, 0xff, 0x10, 0x00, 0x00, 0x00, 0x06, 0x00, 0x00, 0x00, 0x14, 0x00, 0x00, 0x00, 0x30, 0x00, 0x00, 0x00, 0x02, 0x00, 0x00, 0x00, 0x32, 0x00, 0x00, 0x00, 0x32, 0x00, 0x00, 0x00, 0x19, 0x00, 0x00, 0x00, 0x73, 0x65, 0x71, 0x75, 0x65, 0x6e, 0x74, 0x69, 0x61, 0x6c, 0x2f, 0x64, 0x65, 0x6e, 0x73, 0x65, 0x5f, 0x31, 0x2f, 0x4d, 0x61, 0x74, 0x4d, 0x75, 0x6c, 0x00, 0x00, 0x00, 0xe8, 0xbd, 0xff, 0xff, 0xd6, 0xbe, 0xff, 0xff, 0x04, 0x00, 0x00, 0x00, 0x80, 0x3e, 0x00, 0x00, 0x1e, 0x4c, 0x32, 0xbe, 0x90, 0x79, 0xe0, 0x3e, 0xb3, 0x96, 0xf0, 0xbd, 0x62, 0xe9, 0x69, 0xbd, 0x14, 0xda, 0x39, 0xbd, 0x8a, 0x59, 0x20, 0x3e, 0x1f, 0xf2, 0x30, 0x3d, 0x00, 0xd1, 0x9b, 0x3c, 0xfa, 0x16, 0x26, 0x3e, 0xc6, 0x24, 0xa1, 0x3d, 0xbc, 0x71, 0x1a, 0xbd, 0xca, 0xbc, 0xda, 0xbd, 0x13, 0x47, 0xef, 0xbc, 0x0f, 0xe2, 0x3b, 0xbe, 0xcd, 0xe4, 0xc1, 0xbe, 0x59, 0xca, 0x26, 0xbe, 0xe8, 0xcf, 0x11, 0x3d, 0x04, 0x1f, 0x7c, 0x3e, 0xe8, 0xde, 0x57, 0x3e, 0x97, 0x88, 0x42, 0xbe, 0xba, 0x93, 0x7a, 0xbe, 0x50, 0x3e, 0xdb, 0x3d, 0x5c, 0x6d, 0xb8, 0xbe, 0xc3, 0xd2, 0x27, 0xbe, 0x25, 0x19, 0x6a, 0x3e, 0x7d, 0x9c, 0x4c, 0xbd, 0xc9, 0x52, 0xd1, 0xbd, 0xda, 0x50, 0xbd, 0xbd, 0xf7, 0x63, 0xa1, 0xbd, 0x6c, 0x49, 0x8a, 0xbd, 0xbf, 0x34, 0xdb, 0xbc, 0xac, 0x5c, 0x17, 0xbe, 0x10, 0x40, 0x54, 0x3e, 0xe9, 0x83, 0x99, 0x3e, 0xd4, 0x4a, 0x03, 0xbe, 0xf8, 0xda, 0x22, 0xbc, 0x49, 0x66, 0xeb, 0xbd, 0xee, 0x22, 0x8e, 0xbc, 0xf4, 0x23, 0xdc, 0xbe, 0x7e, 0xc0, 0x7b, 0x3e, 0x72, 0xff, 0x04, 0xbe, 0x61, 0xe6, 0x30, 0xbe, 0x94, 0x99, 0x85, 0x3e, 0x97, 0xfa, 0x8f, 0xbe, 0xc3, 0x14, 0xa5, 0xbe, 0xd1, 0xcf, 0x30, 0xbd, 0x49, 0x68, 0x80, 0x3d, 0xae, 0x42, 0x6c, 0xbe, 0x10, 0x82, 0x87, 0xbd, 0xa2, 0xcf, 0x99, 0x3b, 0x52, 0x27, 0xf6, 0xbb, 0xdb, 0xf3, 0x44, 0x3e, 0x88, 0x62, 0x5b, 0xbd, 0xc0, 0x23, 0x09, 0xbc, 0x87, 0xde, 0xb1, 0x3e, 0x5e, 0x6d, 0xa9, 0x3e, 0xc4, 0x60, 0x8d, 0x3c, 0x62, 0x2b, 0xa6, 0x3d, 0x9c, 0xb4, 0x99, 0xbe, 0x79, 0xf8, 0xc3, 0x3c, 0xcd, 0xd9, 0x6d, 0xbc, 0x76, 0x55, 0x13, 0x3e, 0xad, 0x22, 0x04, 0xbd, 0xc0, 0x8d, 0x07, 0xbf, 0xf0, 0xad, 0x0a, 0xbf, 0x40, 0x34, 0x81, 0xbe, 0x4e, 0xc0, 0x9b, 0x3d, 0x57, 0x8e, 0xe2, 0x3d, 0x02, 0x62, 0x33, 0xbe, 0xd5, 0x5f, 0xad, 0x3c, 0x2c, 0x9f, 0x73, 0xbe, 0xf8, 0xc0, 0xa8, 0x3c, 0x32, 0x89, 0x62, 0x3e, 0x74, 0xe3, 0x43, 0xbd, 0xe4, 0x17, 0x5b, 0x3e, 0x8b, 0x07, 0x18, 0xbe, 0x29, 0xb2, 0xcc, 0xbd, 0xe2, 0x5f, 0xa5, 0x3e, 0x6c, 0x23, 0xb0, 0xbc, 0x66, 0xee, 0xce, 0xbe, 0x4b, 0xc0, 0x32, 0xbe, 0x3b, 0xa8, 0x56, 0xbe, 0xa9, 0x99, 0x8a, 0xbd, 0xf5, 0x96, 0xf6, 0xbd, 0xab, 0x34, 0xcf, 0x3b, 0x56, 0x80, 0x02, 0x3e, 0x78, 0x14, 0x4f, 0x3e, 0xa7, 0xa4, 0x02, 0xbe, 0xae, 0x08, 0xf4, 0x3c, 0x90, 0x80, 0x76, 0xbe, 0xcb, 0x02, 0x22, 0x3d, 0x61, 0x2f, 0xa8, 0x3e, 0x0c, 0x4f, 0x30, 0xbe, 0x46, 0x0d, 0xb8, 0xbd, 0xc2, 0x3b, 0xc5, 0x3d, 0xce, 0xfa, 0x2d, 0xbe, 0x9d, 0xd3, 0x58, 0xbd, 0xf2, 0xe2, 0x97, 0xbd, 0x07, 0xa2, 0xcf, 0x3c, 0x37, 0x5d, 0xd9, 0x3d, 0x17, 0xd8, 0x2b, 0xbe, 0x86, 0x40, 0x36, 0x3e, 0xd1, 0xa8, 0x35, 0x3f, 0xa9, 0x0e, 0x70, 0xbe, 0x2b, 0xb0, 0xa2, 0xbd, 0x9b, 0xd9, 0x4a, 0xbe, 0xbf, 0xe6, 0xc0, 0x3d, 0x4f, 0x93, 0xa9, 0xbe, 0xb6, 0x6c, 0x27, 0x3e, 0x1c, 0x08, 0x93, 0x3b, 0x14, 0xce, 0x87, 0x3b, 0x10, 0x80, 0x81, 0xbe, 0xc9, 0xdf, 0xaf, 0xbd, 0x7b, 0xf7, 0xa6, 0x3e, 0x7c, 0x3a, 0x66, 0xbe, 0xde, 0x57, 0x3e, 0x3e, 0x4c, 0xda, 0x54, 0x3e, 0xd6, 0x8d, 0x07, 0x3e, 0xa8, 0x7a, 0x76, 0x3d, 0x0f, 0xce, 0x9b, 0x3e, 0xfe, 0xaf, 0x43, 0xbe, 0xd0, 0x91, 0x4c, 0x3d, 0xd5, 0x02, 0x83, 0xbd, 0x8c, 0xa8, 0xa3, 0xbd, 0xa6, 0xb4, 0xd3, 0xbe, 0x11, 0xed, 0x95, 0xbc, 0x18, 0x2d, 0x55, 0x3d, 0x1f, 0x21, 0x50, 0xbe, 0x20, 0xc5, 0x19, 0x3d, 0x6f, 0xce, 0x27, 0xbe, 0x23, 0xca, 0x75, 0xbe, 0xe9, 0xbe, 0xa3, 0x3d, 0x75, 0x8a, 0x07, 0xbe, 0x8f, 0x44, 0x60, 0xbe, 0x60, 0x1b, 0x22, 0xbe, 0xb4, 0xf0, 0xfa, 0xbb, 0x8a, 0x63, 0xdb, 0xbe, 0xe9, 0x9e, 0x51, 0x3e, 0xe5, 0xd0, 0x93, 0x3e, 0xa7, 0x95, 0x7e, 0xbc, 0x22, 0xa2, 0x1b, 0xbe, 0x58, 0xc1, 0x2b, 0xbe, 0xa3, 0xe3, 0x7f, 0xbd, 0x57, 0xed, 0x80, 0x3e, 0xc4, 0x10, 0xec, 0x3d, 0x16, 0x4d, 0x8f, 0xbe, 0x5e, 0x5f, 0x49, 0xbd, 0x2c, 0x30, 0x31, 0x3e, 0xaf, 0xe2, 0x5e, 0x3e, 0x99, 0x78, 0xfe, 0xbb, 0x0e, 0x50, 0xc4, 0xbd, 0x12, 0x67, 0xe8, 0x3c, 0xd4, 0xf0, 0x35, 0xbe, 0x24, 0xb0, 0x8e, 0xbe, 0x30, 0x77, 0xde, 0x3e, 0x97, 0xd5, 0x06, 0xbf, 0x60, 0xc4, 0x8e, 0x3e, 0x99, 0xc6, 0x82, 0xbd, 0xde, 0xe0, 0xd4, 0xbb, 0x06, 0x12, 0x13, 0xbf, 0x20, 0x88, 0x26, 0xbe, 0x4b, 0x46, 0x5b, 0x3e, 0xaa, 0x21, 0x6f, 0x3e, 0xa4, 0xdc, 0xc4, 0x3c, 0xe9, 0xd7, 0x92, 0xbe, 0xd9, 0xbc, 0xd2, 0x3d, 0xcb, 0x09, 0x8a, 0x3d, 0x0b, 0x0d, 0x13, 0xbd, 0x38, 0x6b, 0x5d, 0xbe, 0x70, 0x08, 0xaa, 0xbd, 0x5c, 0x54, 0x0f, 0xbe, 0xa4, 0x6c, 0x1c, 0xbe, 0x68, 0x45, 0x5b, 0x3e, 0x23, 0x74, 0x4e, 0x3d, 0x1f, 0x59, 0x64, 0x3e, 0x3e, 0x61, 0xa8, 0xbd, 0x16, 0xd5, 0x12, 0xbe, 0x24, 0xda, 0x52, 0xbe, 0x8c, 0xaf, 0xe0, 0xbd, 0x2c, 0x63, 0x54, 0x3e, 0x5f, 0x95, 0xce, 0xbd, 0x9e, 0x24, 0x38, 0xbe, 0x2b, 0xa6, 0x50, 0x3e, 0xd4, 0x56, 0x92, 0xbe, 0xe3, 0xc7, 0xfe, 0x3d, 0x29, 0x7e, 0xb2, 0xbe, 0x14, 0xc9, 0x7c, 0x3e, 0x59, 0x81, 0x8d, 0x3e, 0xf4, 0xe4, 0x81, 0x3e, 0x97, 0xc9, 0x9f, 0xbe, 0xf1, 0xf3, 0x8e, 0x3c, 0x23, 0x57, 0xa6, 0x3e, 0x43, 0x03, 0x7b, 0xbd, 0x0d, 0x05, 0xb2, 0xbe, 0x00, 0xce, 0x4b, 0x3d, 0x06, 0x08, 0x86, 0xbe, 0x4b, 0x1d, 0xc9, 0x3d, 0xf6, 0xf9, 0x34, 0x3e, 0xdd, 0x97, 0x7f, 0x3e, 0x4d, 0x4c, 0xab, 0x3d, 0xcc, 0x16, 0x78, 0xbe, 0xa3, 0x17, 0x84, 0x3e, 0xc3, 0x04, 0x36, 0x3d, 0x2f, 0x3e, 0xfb, 0xbc, 0x88, 0x48, 0x55, 0xbe, 0xfa, 0xae, 0xa6, 0x3d, 0x1c, 0x0e, 0x00, 0x3e, 0xb9, 0x10, 0x8e, 0xbe, 0x73, 0xad, 0x41, 0x3e, 0x05, 0xe8, 0x8e, 0xbe, 0x14, 0xda, 0x46, 0x3e, 0xba, 0xdf, 0x41, 0x3e, 0xbe, 0xc0, 0x4d, 0xbe, 0x23, 0x33, 0xa7, 0x3e, 0x39, 0x68, 0x58, 0xbe, 0xd7, 0x4e, 0x01, 0xbe, 0x13, 0xfc, 0xbc, 0xbe, 0xe2, 0x96, 0x43, 0x3e, 0x08, 0x9e, 0x1c, 0xbe, 0xee, 0x3f, 0x23, 0x3e, 0xd1, 0xb4, 0x4d, 0xbe, 0x7d, 0xc3, 0x24, 0x3d, 0xb3, 0xfb, 0x39, 0xbe, 0xd2, 0x44, 0x29, 0xbe, 0x5f, 0x31, 0x4f, 0x3d, 0x5c, 0x81, 0x73, 0x3e, 0xb8, 0xd1, 0xda, 0xbc, 0x43, 0x8b, 0x5f, 0xbd, 0x45, 0xbb, 0xca, 0x3d, 0x7c, 0xf6, 0x1c, 0x3e, 0x23, 0x90, 0x77, 0xbe, 0x17, 0xfd, 0xb5, 0x3d, 0xd9, 0x59, 0x1e, 0xbe, 0x85, 0x56, 0x4d, 0xbd, 0x97, 0x2a, 0xc3, 0xbd, 0x14, 0xab, 0x8e, 0xbe, 0x04, 0x76, 0x4c, 0x3d, 0xc0, 0xec, 0x5f, 0x3b, 0xcb, 0x3d, 0x51, 0xbe, 0xa8, 0x34, 0x3c, 0x3d, 0x4c, 0xb2, 0x21, 0x3d, 0x95, 0xee, 0xae, 0x3d, 0xfc, 0x16, 0x92, 0x3e, 0x71, 0x15, 0x2c, 0xbe, 0x23, 0x9f, 0x55, 0x3e, 0xef, 0xdd, 0xbe, 0xbd, 0x16, 0xb0, 0xf9, 0x3d, 0x1d, 0x17, 0x17, 0x3c, 0x29, 0x28, 0x2b, 0xbe, 0x08, 0xdb, 0x08, 0xbe, 0x97, 0x4d, 0x7d, 0xbe, 0xc8, 0x31, 0x1b, 0x3e, 0x1b, 0x50, 0x48, 0x3e, 0x9a, 0x85, 0x9e, 0x3c, 0xe2, 0x33, 0x76, 0x3d, 0x82, 0xfc, 0xb4, 0xbb, 0xbb, 0x4a, 0xa4, 0xbe, 0x1e, 0x88, 0x93, 0xbc, 0x85, 0xe1, 0x96, 0xbd, 0x0f, 0x30, 0x78, 0x3d, 0x16, 0x4a, 0x27, 0x3e, 0x58, 0xe2, 0x02, 0xbc, 0x9b, 0x3d, 0x55, 0x3e, 0x2f, 0x35, 0xcc, 0x3e, 0x74, 0xc4, 0xc7, 0x3d, 0xbd, 0xb4, 0xbd, 0xbe, 0x43, 0x6d, 0xe1, 0x3c, 0x40, 0x1e, 0xbf, 0x3e, 0x35, 0x45, 0xfb, 0x3d, 0x40, 0x93, 0xa5, 0xbe, 0x6b, 0xbe, 0x71, 0x3e, 0xd7, 0x83, 0x9d, 0x3e, 0xfa, 0x44, 0xbc, 0xbd, 0x74, 0x4a, 0x17, 0xbe, 0x4b, 0x13, 0x1a, 0xbc, 0x5b, 0x85, 0x89, 0xbc, 0xb6, 0x80, 0xc4, 0x3e, 0x7d, 0xfc, 0x27, 0x3f, 0x1f, 0xb2, 0x7f, 0x3e, 0x3d, 0x03, 0x1b, 0xbe, 0xee, 0x16, 0x4a, 0x3c, 0x00, 0x83, 0x69, 0xbc, 0xec, 0xdd, 0xc2, 0xbe, 0x5c, 0x23, 0x23, 0xbd, 0x97, 0xb0, 0x6e, 0x3e, 0x33, 0xa6, 0xb9, 0xbe, 0x6a, 0x12, 0xa1, 0xbc, 0xea, 0x8a, 0xa3, 0x3d, 0x9c, 0x5b, 0x81, 0xbe, 0x5c, 0x08, 0xa8, 0x3d, 0xd8, 0xd9, 0x82, 0xbe, 0x76, 0xf5, 0xdf, 0xbe, 0x2b, 0x79, 0x60, 0xbb, 0x14, 0x0c, 0x89, 0xbe, 0x1a, 0x4c, 0xc0, 0xbe, 0x07, 0x17, 0x2e, 0x3d, 0x2b, 0x91, 0x23, 0xbe, 0x1f, 0x16, 0xbe, 0x3e, 0xf2, 0x8e, 0x25, 0xbd, 0xae, 0x9c, 0x19, 0xbd, 0xe1, 0x78, 0x20, 0xbe, 0x0a, 0xdd, 0xc3, 0x3d, 0x8a, 0x79, 0x04, 0xbd, 0x60, 0xa2, 0x21, 0xbf, 0x08, 0xc6, 0xf8, 0xbe, 0x43, 0xf6, 0x06, 0x3e, 0xf0, 0x74, 0x2a, 0xbe, 0xff, 0x40, 0x80, 0xbe, 0x42, 0x9a, 0x52, 0x3e, 0x4a, 0x1b, 0x99, 0xbd, 0xc2, 0xf7, 0xdd, 0x3d, 0xd0, 0x63, 0xeb, 0xbd, 0x6c, 0xfa, 0x24, 0xbe, 0xee, 0xf1, 0xa2, 0x3d, 0x07, 0x53, 0x46, 0xbe, 0xfc, 0xe1, 0x51, 0x3d, 0x38, 0xc6, 0x52, 0xbb, 0x87, 0x01, 0x10, 0x3d, 0x9f, 0xf7, 0xb4, 0x3e, 0xa8, 0x2b, 0xab, 0x3d, 0x58, 0x33, 0x94, 0xbd, 0x48, 0x61, 0x09, 0x3e, 0x74, 0xe7, 0x0c, 0xbe, 0x9b, 0xa9, 0x14, 0x3e, 0x4d, 0x8c, 0x32, 0xbe, 0x9e, 0xa7, 0x1a, 0xbd, 0x60, 0xf0, 0x46, 0x3e, 0x57, 0xe3, 0xd8, 0xbd, 0x82, 0x68, 0x58, 0x3d, 0xa6, 0xc2, 0x26, 0x3e, 0x16, 0xba, 0x60, 0xbd, 0xd0, 0xaa, 0xfa, 0xbd, 0x3b, 0x69, 0x17, 0x3e, 0x71, 0x8a, 0x14, 0x3c, 0x83, 0x2c, 0x37, 0x3e, 0x26, 0x56, 0xf0, 0x3d, 0x64, 0xbb, 0x1c, 0x3e, 0xc4, 0x6d, 0x2c, 0xbb, 0xdd, 0x29, 0xb6, 0x3d, 0xba, 0x97, 0x3d, 0x3e, 0xb5, 0xab, 0x0d, 0xbe, 0x64, 0x5b, 0x93, 0xbd, 0x99, 0x9c, 0x99, 0x3d, 0xc6, 0x68, 0x98, 0xbe, 0x95, 0x3b, 0x13, 0xbe, 0x58, 0x29, 0xbe, 0x3e, 0x1f, 0x73, 0xb2, 0xbe, 0xd4, 0xc4, 0xc3, 0x3d, 0x7d, 0xb2, 0xe9, 0xbd, 0x56, 0xcb, 0x9a, 0x3d, 0x8d, 0x51, 0x19, 0x3e, 0xec, 0x5b, 0x0e, 0x3e, 0xd4, 0xdc, 0x2c, 0x3e, 0x70, 0x3d, 0x35, 0x3e, 0x08, 0xcd, 0x50, 0x3e, 0x1f, 0xde, 0x34, 0x3e, 0x1d, 0xf6, 0x51, 0xbe, 0x1e, 0x2d, 0xf1, 0x3d, 0x91, 0x0a, 0x0b, 0x3e, 0x8e, 0x72, 0x95, 0x3e, 0x76, 0xb1, 0xc7, 0xbe, 0x9c, 0xf3, 0xfa, 0x3e, 0xfc, 0xf6, 0xa2, 0x3e, 0x07, 0x13, 0x3f, 0x3e, 0x1c, 0x16, 0x01, 0xbe, 0x0b, 0xa2, 0x2f, 0x3c, 0x14, 0x3e, 0x4f, 0x3d, 0xfc, 0x27, 0xee, 0xbd, 0xb4, 0x3d, 0x14, 0xbe, 0x36, 0x61, 0xbb, 0xbd, 0x2c, 0xf6, 0x05, 0x3f, 0x7e, 0x57, 0xd5, 0x3e, 0xba, 0x73, 0x83, 0xbe, 0x8e, 0xd2, 0x07, 0x3f, 0x6a, 0x8a, 0xc5, 0x3e, 0xdb, 0x70, 0xad, 0x3d, 0x87, 0x48, 0x39, 0xbe, 0x27, 0x1c, 0x38, 0xbd, 0x99, 0xb7, 0x7b, 0x3e, 0xa6, 0x0c, 0x84, 0xbd, 0xb0, 0xf1, 0x74, 0x3e, 0xc7, 0x1f, 0x12, 0xbe, 0xc5, 0x09, 0x09, 0x3e, 0x7d, 0x58, 0x0f, 0xbe, 0x19, 0xf4, 0x8b, 0x3e, 0x28, 0x5a, 0x8a, 0x3e, 0xf9, 0x99, 0x82, 0xbe, 0x1a, 0x41, 0xd2, 0xbd, 0x23, 0xf4, 0x1d, 0x3b, 0x62, 0x32, 0xce, 0x3c, 0xcc, 0x67, 0x75, 0xbd, 0x4e, 0x49, 0xd0, 0xbd, 0xe7, 0x7d, 0x34, 0x3d, 0xa6, 0x8e, 0x3f, 0xbd, 0x4a, 0x06, 0x0b, 0x3e, 0xf1, 0x30, 0x3e, 0xbe, 0x91, 0x96, 0x3a, 0xbe, 0x50, 0xdb, 0x88, 0xbe, 0x62, 0x4d, 0xd7, 0xbe, 0x96, 0xc8, 0x02, 0xbd, 0x35, 0x83, 0xfd, 0x3d, 0x4c, 0x02, 0xb2, 0xbd, 0x03, 0x85, 0x96, 0x3e, 0x1a, 0x70, 0x68, 0x3d, 0xbe, 0x0b, 0xbb, 0xbd, 0x5c, 0xc1, 0x3f, 0xbe, 0xfc, 0x86, 0x29, 0x3e, 0xbc, 0x86, 0xb8, 0xbb, 0x3c, 0xe0, 0x00, 0xbe, 0x7a, 0xc0, 0x11, 0x3e, 0x27, 0x5f, 0xcb, 0x3d, 0x9b, 0x43, 0x16, 0xbc, 0x28, 0x32, 0x4f, 0x3e, 0x37, 0x9d, 0x8c, 0xbd, 0x86, 0x7f, 0xfc, 0x3d, 0x88, 0x73, 0x45, 0x3e, 0x74, 0xa6, 0x68, 0x3e, 0x0b, 0x92, 0x7d, 0xbd, 0xd0, 0x42, 0xdc, 0xbd, 0x7e, 0x18, 0xed, 0x3d, 0x5a, 0xa6, 0x05, 0x3e, 0x5b, 0x01, 0x26, 0xbe, 0xdf, 0x9c, 0x8f, 0xbe, 0x21, 0x18, 0x52, 0x3e, 0xcc, 0xa2, 0x54, 0xbe, 0x66, 0x2d, 0xeb, 0xbe, 0x1f, 0x11, 0x89, 0x3e, 0xd5, 0x35, 0xeb, 0x3e, 0x92, 0x45, 0xa7, 0xbe, 0xb2, 0x1e, 0x2f, 0xbe, 0x55, 0x61, 0xf5, 0xbc, 0xda, 0xb4, 0x04, 0xbe, 0xae, 0x73, 0x0e, 0x3e, 0x56, 0x9c, 0x22, 0xbe, 0xe4, 0x06, 0xbd, 0x3d, 0x2a, 0x2b, 0x34, 0x3e, 0x39, 0x33, 0x9a, 0xbe, 0xff, 0x4b, 0x0e, 0xbf, 0x2a, 0x84, 0xb2, 0x3e, 0x89, 0x32, 0x77, 0xbe, 0x80, 0x2f, 0x28, 0xbd, 0x6c, 0x8f, 0xc9, 0xbe, 0xe0, 0xbb, 0xf3, 0x3e, 0xea, 0xbd, 0x7d, 0xbd, 0x54, 0x92, 0x69, 0xbe, 0x5d, 0xf2, 0x7a, 0x3e, 0xe5, 0x33, 0x6d, 0x3e, 0x43, 0x47, 0xfd, 0xbd, 0xf0, 0x88, 0x3b, 0x3c, 0x3d, 0xdf, 0x5c, 0xbd, 0x7e, 0x38, 0xcd, 0xbe, 0x19, 0xc2, 0xf1, 0x3e, 0x81, 0xd5, 0x95, 0xbe, 0x07, 0x74, 0x3a, 0xbe, 0x99, 0xe7, 0xe0, 0x3d, 0xa9, 0x10, 0x7e, 0xbe, 0x74, 0xac, 0x0a, 0xbe, 0x38, 0x2c, 0x44, 0x3d, 0x66, 0x95, 0x41, 0x3e, 0xd9, 0x8c, 0x80, 0x3d, 0x03, 0x8d, 0xf3, 0x3d, 0xc8, 0xa5, 0x3f, 0xbe, 0x9d, 0x18, 0xbd, 0x3d, 0x20, 0xb6, 0x94, 0x3e, 0x3c, 0x79, 0xb5, 0x3d, 0xbc, 0x68, 0xfd, 0xbb, 0xed, 0x03, 0x2b, 0x3e, 0x01, 0x28, 0xbf, 0xbd, 0xf4, 0xb7, 0x9b, 0x3c, 0xd6, 0xe0, 0x08, 0x3d, 0xd7, 0xe9, 0x92, 0x3e, 0xfd, 0x9c, 0x32, 0xbe, 0x97, 0xa4, 0x62, 0x3c, 0x83, 0xa5, 0x27, 0x3d, 0x5b, 0x00, 0xb3, 0xbe, 0x02, 0x48, 0x80, 0x3e, 0x7c, 0x6e, 0xf7, 0xbe, 0x5e, 0xde, 0xc8, 0x3c, 0xa8, 0x7d, 0xcb, 0xbe, 0xcd, 0x5d, 0xdb, 0xbd, 0xa3, 0x52, 0x1f, 0xbe, 0x7a, 0x53, 0x0d, 0xbe, 0x5f, 0x30, 0x21, 0xbe, 0xab, 0x03, 0x56, 0xbe, 0x95, 0x9b, 0xd3, 0x3d, 0x6e, 0xda, 0x77, 0x3d, 0x11, 0x7a, 0x73, 0x3e, 0xf8, 0xd8, 0xaa, 0xbd, 0xc4, 0x8a, 0x50, 0xbe, 0xa0, 0x5c, 0x9c, 0xbd, 0x04, 0x00, 0xee, 0xbc, 0xd3, 0x01, 0x1d, 0xbe, 0x64, 0x41, 0xc2, 0xbd, 0x91, 0x47, 0x92, 0x3e, 0x9d, 0xa0, 0x60, 0xbd, 0xf1, 0x33, 0xe0, 0xba, 0x98, 0x89, 0x41, 0xbe, 0x66, 0xf9, 0x3c, 0xbe, 0xb1, 0xd1, 0x54, 0x3d, 0xbc, 0xd0, 0x89, 0x3e, 0x96, 0x6b, 0xb9, 0xbc, 0x39, 0x9c, 0x95, 0xbd, 0xb7, 0xca, 0xf6, 0x3e, 0x5d, 0x48, 0x76, 0xbd, 0xdf, 0x64, 0x38, 0xbe, 0xa4, 0x61, 0x2f, 0x3d, 0x33, 0xae, 0xa2, 0x3d, 0x35, 0xc2, 0x20, 0x3e, 0xd9, 0x11, 0x14, 0xbf, 0xcc, 0x6e, 0x82, 0x3e, 0x5d, 0x80, 0xfe, 0x3d, 0xc4, 0xd9, 0x53, 0xbd, 0x5d, 0xb5, 0x9d, 0x3e, 0x14, 0x97, 0xd1, 0x3e, 0x0f, 0x9c, 0x20, 0x3e, 0x96, 0xf1, 0xfb, 0xbc, 0xd7, 0x41, 0x91, 0xbd, 0x70, 0x63, 0xdf, 0x3e, 0x3c, 0x81, 0xc5, 0x3d, 0xfe, 0xcc, 0xc6, 0x3d, 0xf6, 0x96, 0x13, 0x3c, 0x3e, 0xd4, 0xd7, 0xbc, 0x64, 0xac, 0x09, 0xbe, 0xe1, 0x91, 0x87, 0x3e, 0x8a, 0xc7, 0xa6, 0xbc, 0x00, 0x80, 0xf5, 0x3d, 0xcc, 0x79, 0xe1, 0x3d, 0x61, 0x6d, 0x96, 0x3e, 0x6a, 0x07, 0x67, 0x3e, 0x9a, 0xbf, 0x84, 0x3e, 0x2c, 0x34, 0x6d, 0xbe, 0x7a, 0x7d, 0x56, 0xbe, 0x1a, 0xac, 0x7b, 0x3e, 0xb1, 0x04, 0x62, 0xbc, 0x75, 0xc4, 0x1b, 0xbe, 0xf7, 0x1b, 0xf9, 0x3e, 0x0f, 0xeb, 0xa4, 0x3d, 0x63, 0xb7, 0xf6, 0x3d, 0x14, 0xf7, 0x2e, 0x3d, 0x20, 0xa7, 0x37, 0x3e, 0xb0, 0xde, 0x59, 0x3e, 0x20, 0x1a, 0x07, 0x3e, 0xe7, 0x99, 0xa6, 0x3d, 0x8a, 0x9a, 0xd3, 0xbc, 0xe9, 0x0d, 0x1e, 0x3e, 0x0f, 0x90, 0x21, 0xbe, 0x8e, 0x8e, 0xb2, 0x3d, 0x39, 0x90, 0xbf, 0xbd, 0xb1, 0x71, 0x2e, 0x3e, 0x71, 0xe9, 0xf8, 0x3c, 0x9b, 0x44, 0xce, 0x3d, 0x54, 0x2a, 0x3e, 0x3d, 0x89, 0x85, 0x00, 0xbe, 0xb8, 0xec, 0xcd, 0x3e, 0x88, 0xfa, 0x73, 0xbe, 0x97, 0x14, 0xe3, 0x3d, 0xcc, 0x5a, 0xde, 0x3d, 0x19, 0x9a, 0x31, 0x3e, 0x49, 0x6e, 0xb2, 0xbc, 0x73, 0x99, 0x86, 0xbd, 0x11, 0x86, 0x01, 0x3e, 0x3f, 0xd2, 0xe8, 0x3d, 0xc8, 0xcd, 0x24, 0xbe, 0x83, 0xc8, 0x89, 0xbd, 0x72, 0x70, 0x86, 0x3d, 0x5d, 0x63, 0x51, 0x3d, 0x3f, 0x47, 0x27, 0xbe, 0xfd, 0xf7, 0x86, 0xbe, 0x5b, 0x3c, 0xa5, 0xbd, 0x91, 0x15, 0x10, 0x3e, 0x48, 0x32, 0x80, 0xbe, 0x72, 0x4f, 0x32, 0xbe, 0x36, 0xee, 0xaa, 0x3c, 0x80, 0x2f, 0x51, 0x3e, 0x3c, 0xa6, 0x2e, 0xbe, 0xaa, 0xcc, 0x43, 0xbe, 0x74, 0x54, 0x35, 0xbe, 0x27, 0xfc, 0xd2, 0xbb, 0xcd, 0xee, 0x09, 0xbd, 0x60, 0xd4, 0xda, 0xbd, 0x77, 0xea, 0xe6, 0xba, 0x68, 0xa3, 0x0e, 0xbe, 0x4f, 0xe3, 0x60, 0x3e, 0x37, 0xf1, 0x51, 0x3d, 0x86, 0x13, 0x4f, 0xbe, 0xd7, 0xbb, 0x99, 0xbd, 0xed, 0x3a, 0xe6, 0xbd, 0xe8, 0xe1, 0x22, 0x3e, 0x8e, 0x17, 0x89, 0x3e, 0xd2, 0xa5, 0x20, 0xbe, 0x5f, 0x52, 0x4c, 0x3d, 0x8e, 0xc9, 0x98, 0x3e, 0xd2, 0xe3, 0xa6, 0xbd, 0x18, 0x06, 0xc2, 0xbd, 0xc9, 0xfa, 0x98, 0x3e, 0x25, 0xfe, 0x64, 0xbe, 0x5c, 0x4c, 0xa6, 0x3d, 0xbc, 0x9b, 0xa9, 0x3e, 0x78, 0x7e, 0x84, 0x3d, 0xd3, 0x1a, 0x5d, 0xbd, 0x52, 0x01, 0x54, 0xbe, 0x28, 0xf7, 0x91, 0x3e, 0xa2, 0x7e, 0xe8, 0x3d, 0x1d, 0x6f, 0x76, 0xbe, 0xc5, 0x98, 0x56, 0x3d, 0x90, 0x0c, 0xb1, 0xbd, 0x7b, 0xd8, 0x7a, 0x3d, 0xb2, 0xc6, 0x18, 0x3e, 0x3d, 0x45, 0x34, 0x3e, 0xfb, 0x48, 0x30, 0xbe, 0x72, 0x5a, 0x01, 0x3f, 0x36, 0x16, 0x0b, 0xbe, 0x92, 0x78, 0x13, 0xbe, 0x2b, 0x54, 0xe3, 0x3e, 0xd8, 0x7b, 0x29, 0x3e, 0x0b, 0x45, 0x43, 0x3e, 0xf9, 0xc8, 0x0c, 0xbd, 0x07, 0xf6, 0x29, 0xbe, 0x5f, 0x08, 0x11, 0xbd, 0x25, 0xa0, 0x15, 0x3d, 0x37, 0x11, 0x1e, 0xbe, 0xd0, 0x34, 0xbc, 0xbd, 0x2d, 0xa5, 0x53, 0xbd, 0xf8, 0x17, 0x42, 0xbe, 0x0b, 0x3c, 0x84, 0xbe, 0xdc, 0xc0, 0xc0, 0x3d, 0x31, 0x3f, 0x41, 0xbe, 0x20, 0xbb, 0x9b, 0x3d, 0xd9, 0x36, 0x09, 0x3e, 0x98, 0x5d, 0x59, 0xbc, 0x47, 0x5c, 0xa1, 0xbd, 0x8d, 0x2e, 0x5e, 0xbc, 0x9b, 0x23, 0xd3, 0xbd, 0x30, 0x06, 0x75, 0x3e, 0xc7, 0x35, 0x0e, 0xbe, 0x18, 0x63, 0x5c, 0x3e, 0xb3, 0x30, 0xfc, 0x3c, 0x3f, 0x86, 0xb5, 0xbb, 0x67, 0xe0, 0xb6, 0xbe, 0xad, 0x68, 0x38, 0xbd, 0x08, 0xe2, 0x27, 0x3e, 0x9e, 0x9c, 0x95, 0xbe, 0x83, 0xfa, 0x18, 0xbe, 0xe5, 0xa0, 0x6c, 0xbe, 0xa7, 0xea, 0x8d, 0xbd, 0xd0, 0xf5, 0x4c, 0xbe, 0xe3, 0x43, 0x44, 0xbe, 0x5d, 0x2f, 0x06, 0x3e, 0x6b, 0x1c, 0x06, 0x3e, 0x4d, 0xb0, 0x30, 0xbe, 0x4b, 0xb6, 0x26, 0xbe, 0x11, 0x1f, 0x1a, 0x3d, 0x3c, 0xf2, 0x86, 0xbd, 0xbf, 0x79, 0xe0, 0x3c, 0x29, 0x84, 0x5a, 0xbc, 0xfe, 0x23, 0xf5, 0xbd, 0x09, 0x0f, 0x24, 0xbe, 0xa3, 0x67, 0xbb, 0xbc, 0xf9, 0xe7, 0xf0, 0x3d, 0x03, 0xbb, 0x23, 0xbd, 0x19, 0x52, 0x83, 0xbd, 0x8b, 0x9b, 0x05, 0x3d, 0xde, 0x14, 0x68, 0xbe, 0x55, 0x59, 0x06, 0xbe, 0xf8, 0xf7, 0x15, 0x3d, 0x84, 0x3d, 0x05, 0x3d, 0xa4, 0x0c, 0x30, 0xbe, 0xc7, 0xc0, 0x75, 0xbe, 0xc9, 0x2e, 0x2e, 0x3d, 0xbd, 0x7b, 0x15, 0x3e, 0xd8, 0xc3, 0xb7, 0x3c, 0x06, 0x76, 0x24, 0x3e, 0x79, 0x66, 0x17, 0xbe, 0x49, 0x64, 0xf5, 0x3d, 0xfd, 0xdc, 0x01, 0xbd, 0x8d, 0x56, 0x06, 0xbe, 0x17, 0x96, 0xe6, 0x3c, 0x3d, 0x4d, 0x9d, 0xbe, 0x63, 0x32, 0x98, 0x3e, 0xaf, 0xeb, 0x2d, 0xbe, 0x90, 0xc5, 0x83, 0x3d, 0xb6, 0x10, 0xc9, 0xbe, 0xa2, 0x22, 0x34, 0x3e, 0x2b, 0x97, 0x19, 0xbe, 0xf8, 0x3b, 0x62, 0xbd, 0xe6, 0xc2, 0x93, 0xbd, 0xf5, 0xed, 0x53, 0x3d, 0x6c, 0x4c, 0xcb, 0xbd, 0xa4, 0xc8, 0x5a, 0x3e, 0x31, 0x6c, 0x94, 0xbd, 0x6a, 0xca, 0xed, 0xbe, 0x61, 0xb0, 0x5a, 0xbd, 0xaf, 0xe5, 0x3f, 0xbc, 0xdc, 0xb6, 0xb8, 0xbe, 0xf9, 0x5d, 0x8c, 0x3e, 0x0d, 0xc9, 0x91, 0xbe, 0x83, 0xbe, 0x5b, 0x3d, 0x24, 0xcf, 0xd7, 0xbd, 0x55, 0x98, 0xb0, 0xbd, 0xa5, 0x8c, 0x14, 0x3c, 0x90, 0xae, 0xde, 0x3d, 0xe8, 0xa3, 0xba, 0x3d, 0x5b, 0xf7, 0x66, 0xbd, 0x13, 0xb6, 0xd2, 0x3e, 0xb8, 0x4c, 0xc9, 0x3e, 0x3a, 0x60, 0x42, 0x3d, 0xdc, 0x27, 0x11, 0xbe, 0x2d, 0x0d, 0x3b, 0xbe, 0xb5, 0xc7, 0x89, 0xbd, 0x6b, 0x72, 0x4f, 0x3b, 0xca, 0x37, 0x8d, 0x3d, 0xd8, 0xe9, 0xf1, 0xbc, 0x94, 0x28, 0x04, 0xbe, 0x53, 0x99, 0xfe, 0x3d, 0xce, 0xeb, 0xc2, 0xbd, 0x2e, 0xb6, 0x0b, 0xbe, 0x1d, 0x4e, 0xb8, 0x3d, 0xea, 0x77, 0x02, 0xbd, 0x7d, 0x15, 0x4f, 0x3e, 0x6d, 0xbc, 0x12, 0x3e, 0x0d, 0xc7, 0x04, 0x3d, 0xbb, 0xa7, 0xc1, 0x3e, 0x92, 0x3a, 0x66, 0xbc, 0xe7, 0x1c, 0x39, 0xbd, 0x26, 0x4a, 0x8c, 0xbe, 0x57, 0x43, 0x34, 0x3e, 0x23, 0x3a, 0x1f, 0xbe, 0x17, 0x75, 0x3f, 0xbe, 0x2f, 0xf4, 0x7d, 0x3d, 0x53, 0xbf, 0xd3, 0x3d, 0x4a, 0xc4, 0x65, 0xbe, 0xe8, 0x34, 0x29, 0xbe, 0xb9, 0xb8, 0x4d, 0x3e, 0x1e, 0x86, 0x08, 0x3e, 0xde, 0x94, 0x32, 0x3e, 0x03, 0xbb, 0x73, 0x3c, 0x92, 0xb6, 0x49, 0x3c, 0x10, 0x07, 0xa4, 0x3c, 0x4a, 0xfc, 0x3e, 0x3e, 0x53, 0xed, 0x42, 0x3e, 0xfd, 0x33, 0x50, 0xbd, 0x86, 0x04, 0x49, 0x3e, 0xf1, 0x22, 0x42, 0xbe, 0x60, 0x36, 0x68, 0xbe, 0x15, 0xc8, 0x6a, 0x3e, 0xca, 0xb0, 0x28, 0x3d, 0xf6, 0xc1, 0x23, 0xbe, 0xc3, 0xca, 0x73, 0x3e, 0xb8, 0x24, 0x9a, 0x3e, 0x78, 0x9c, 0x99, 0x3e, 0x5c, 0x7d, 0xe7, 0xbd, 0xcd, 0xfd, 0xcf, 0x3c, 0xd1, 0x54, 0x76, 0x3e, 0x70, 0xe3, 0xff, 0xbe, 0x28, 0x5f, 0x53, 0x3e, 0x28, 0xc2, 0x22, 0xbe, 0x72, 0x9c, 0x1e, 0xbc, 0x56, 0x31, 0xa9, 0x3d, 0x5c, 0x2d, 0x1e, 0xbe, 0xcb, 0x86, 0xfa, 0xbd, 0x86, 0xbd, 0xb7, 0x3d, 0xe2, 0xd6, 0x08, 0xbe, 0x7b, 0x35, 0x9c, 0x3e, 0x35, 0x74, 0x93, 0xbd, 0xac, 0xd7, 0x63, 0xbe, 0x9a, 0x7e, 0x19, 0x3e, 0xe4, 0x11, 0x3d, 0x3e, 0x9c, 0x04, 0x5f, 0xbe, 0x42, 0x1f, 0x2a, 0x3e, 0x91, 0x17, 0x5f, 0x3e, 0x32, 0xab, 0x16, 0x3e, 0x2b, 0x21, 0xd6, 0x3e, 0x73, 0x76, 0x9d, 0xbd, 0xfb, 0x5f, 0xee, 0xbd, 0x1c, 0x5f, 0x8e, 0x3c, 0x3a, 0x6c, 0xbd, 0xbe, 0xca, 0x56, 0xad, 0x3d, 0x74, 0xbd, 0xa7, 0x3d, 0x33, 0xc6, 0xc9, 0xbd, 0xa5, 0xf2, 0xfd, 0xbc, 0xd2, 0x5c, 0x0c, 0xbe, 0x80, 0xb9, 0xc2, 0xbd, 0x72, 0x5f, 0x11, 0x3d, 0xc7, 0x4e, 0xa6, 0xbc, 0xec, 0xac, 0x23, 0xbe, 0x18, 0x18, 0x37, 0x3e, 0x89, 0x58, 0xca, 0x3d, 0x67, 0xd6, 0xed, 0xbd, 0xf3, 0x31, 0x75, 0xbe, 0x0c, 0x4d, 0xd7, 0xbd, 0xaa, 0x55, 0x02, 0xbd, 0x1d, 0xce, 0x32, 0x3e, 0x03, 0xe3, 0x95, 0xbc, 0xad, 0x10, 0x21, 0x3e, 0x47, 0x79, 0x3b, 0x3d, 0xb6, 0x08, 0x81, 0x3e, 0x0c, 0x25, 0xc6, 0xbc, 0x5f, 0x54, 0x27, 0x3e, 0x7b, 0x21, 0x09, 0xbe, 0xad, 0x0e, 0x4e, 0xbb, 0x78, 0x8e, 0x4c, 0x3e, 0x0e, 0xc4, 0xc4, 0x3e, 0xc1, 0x9c, 0x22, 0x3e, 0xbf, 0x0e, 0x9e, 0x3e, 0x78, 0x1b, 0x0c, 0x3e, 0x14, 0xff, 0x22, 0xbe, 0xdd, 0xc2, 0x58, 0x3e, 0x0f, 0x5f, 0x31, 0xbe, 0xec, 0x8b, 0x33, 0x3e, 0x91, 0xd6, 0xb7, 0x3e, 0x37, 0xbd, 0x26, 0xbd, 0x56, 0x5e, 0xb0, 0x3d, 0xb7, 0x94, 0x43, 0x3d, 0xec, 0xf0, 0xae, 0x3d, 0x9a, 0x43, 0xaa, 0xbd, 0x8a, 0xe1, 0x25, 0x3e, 0x27, 0x2f, 0xc0, 0x3e, 0x4e, 0x7a, 0x8b, 0x3c, 0x46, 0x72, 0x12, 0xbd, 0xc0, 0xe9, 0x89, 0xbd, 0x51, 0xf2, 0xcc, 0xbd, 0x51, 0xc2, 0x4f, 0xbe, 0xef, 0x40, 0x57, 0xbe, 0x73, 0xf7, 0x97, 0xbc, 0x40, 0x5f, 0x6e, 0x3e, 0xf1, 0xf8, 0xd7, 0x3d, 0x84, 0xdc, 0xd0, 0x3d, 0x26, 0x54, 0x22, 0x3e, 0x83, 0xcb, 0xf9, 0x3e, 0x27, 0x1f, 0xae, 0x3d, 0x36, 0x76, 0x98, 0xbd, 0xd2, 0x42, 0x26, 0xbe, 0x6b, 0x43, 0xa6, 0x3e, 0x37, 0x55, 0xb4, 0x3d, 0x0e, 0x9d, 0x0c, 0x3e, 0xcc, 0xb4, 0xe7, 0x3d, 0x2e, 0xf5, 0x80, 0xbe, 0x14, 0x0f, 0x9d, 0xbe, 0xac, 0x26, 0x67, 0xbc, 0xdd, 0x56, 0x16, 0x3e, 0xca, 0xf5, 0x9b, 0x3e, 0x6a, 0x16, 0xb4, 0x3e, 0xee, 0xc0, 0x4a, 0xbe, 0x9a, 0x09, 0x23, 0xbc, 0x89, 0x43, 0xc1, 0x3d, 0x75, 0xa4, 0x87, 0x3d, 0x29, 0xb4, 0xc8, 0x3d, 0x70, 0x5d, 0x46, 0x3e, 0xd0, 0xb1, 0xdc, 0x3d, 0x6c, 0xf4, 0x37, 0x3e, 0x97, 0x0d, 0xf3, 0x3e, 0x2d, 0x96, 0xa5, 0xbe, 0x6a, 0x22, 0x92, 0xbd, 0xef, 0x91, 0x96, 0x3e, 0x00, 0x4f, 0x11, 0xbe, 0xb4, 0x61, 0x4c, 0xbe, 0x3d, 0xf5, 0x7d, 0x3e, 0x9b, 0x93, 0x0c, 0xbf, 0xf5, 0xb6, 0xa6, 0x3e, 0x26, 0x1a, 0x90, 0x3d, 0x9b, 0x12, 0x99, 0xbd, 0xf7, 0x53, 0x8f, 0xbd, 0x3a, 0xcc, 0x4a, 0x3e, 0xf3, 0x88, 0xeb, 0x3d, 0x93, 0x95, 0xc9, 0xbd, 0x31, 0xc2, 0x4e, 0x3e, 0x65, 0x06, 0x97, 0x3d, 0x2a, 0x07, 0x02, 0x3c, 0xcf, 0x38, 0x2b, 0xbe, 0x4c, 0x2a, 0xcb, 0xbd, 0xf5, 0x23, 0x6c, 0x3d, 0xc4, 0x2c, 0x02, 0x3e, 0x8a, 0x62, 0x65, 0xbc, 0x02, 0x82, 0xde, 0xbb, 0x32, 0xb5, 0x54, 0x3d, 0x3d, 0x3b, 0x2e, 0x3e, 0xca, 0xa3, 0x1f, 0xbe, 0x49, 0xa9, 0x90, 0xbe, 0xed, 0xff, 0x24, 0xbe, 0x20, 0x58, 0x74, 0x3e, 0xef, 0x45, 0xc1, 0x3e, 0xa9, 0x60, 0x4c, 0x3f, 0x1d, 0xd3, 0xc7, 0x3b, 0x1f, 0x7f, 0x86, 0x3b, 0x04, 0x00, 0x53, 0xbe, 0xea, 0x33, 0x93, 0x3d, 0x47, 0x6b, 0x46, 0xbd, 0xda, 0x57, 0x99, 0xbe, 0x3b, 0xf0, 0x38, 0xbd, 0xd8, 0x4b, 0xa9, 0xbd, 0x69, 0x4a, 0xaa, 0xbe, 0x01, 0xf0, 0xc0, 0x3d, 0x02, 0xe2, 0xc6, 0x3d, 0x8a, 0x01, 0xda, 0x3d, 0xd3, 0xb0, 0x9c, 0xbd, 0xa7, 0x56, 0xf7, 0x3c, 0x9d, 0x00, 0x13, 0x3e, 0x0b, 0xe3, 0x83, 0xbd, 0x0f, 0x48, 0x0f, 0x3e, 0x5b, 0x8f, 0x14, 0x3e, 0xb0, 0x66, 0x82, 0xbe, 0xcf, 0x4b, 0x0e, 0xbe, 0x55, 0x6a, 0x29, 0x3e, 0xad, 0x4b, 0x3b, 0xbe, 0x63, 0x34, 0x87, 0xbe, 0xe7, 0x3c, 0x22, 0xbe, 0xc4, 0xdf, 0xbe, 0x3d, 0x31, 0x5c, 0x2f, 0xbb, 0x3e, 0x15, 0xf2, 0x3e, 0x9c, 0x63, 0x13, 0xbe, 0xfa, 0x0e, 0x35, 0x3d, 0x89, 0x27, 0xd2, 0xbd, 0x1c, 0x18, 0x87, 0x3e, 0x41, 0x1c, 0xa1, 0x3e, 0x91, 0xc7, 0xec, 0x3c, 0xbd, 0xd6, 0xb1, 0xbc, 0x19, 0x79, 0x10, 0xbe, 0x58, 0x45, 0x17, 0xbe, 0x95, 0x62, 0x32, 0xbe, 0x5f, 0xaf, 0xe3, 0xbe, 0xb4, 0x5c, 0x29, 0xbe, 0x5c, 0x14, 0x11, 0x3f, 0x05, 0x03, 0x2a, 0xbe, 0x35, 0x9a, 0xa7, 0xbd, 0x18, 0x56, 0x06, 0xbe, 0x99, 0x7d, 0x85, 0xbd, 0xc2, 0x5a, 0x70, 0xbe, 0x0e, 0x6b, 0x2e, 0xbe, 0xa9, 0x6b, 0x1f, 0xbe, 0x24, 0x67, 0x00, 0xbe, 0x5e, 0x89, 0xed, 0x3e, 0x42, 0x54, 0x44, 0xbe, 0x90, 0x86, 0x63, 0xbe, 0x51, 0x78, 0xec, 0x3e, 0x89, 0x63, 0x51, 0xbd, 0xf8, 0x7a, 0x7a, 0x3e, 0x48, 0xc3, 0x85, 0xbb, 0x2f, 0x21, 0x06, 0xbe, 0x64, 0x1b, 0x02, 0xbc, 0x81, 0x1a, 0x2f, 0xbd, 0x53, 0xff, 0x51, 0x3d, 0xc4, 0x06, 0x15, 0x3e, 0x6b, 0x12, 0x00, 0xbe, 0xe3, 0x96, 0xf1, 0xbe, 0x6f, 0xbe, 0x3b, 0xbe, 0x86, 0x3f, 0x7b, 0x3e, 0xf7, 0x52, 0x3a, 0xbe, 0xb9, 0x38, 0x5d, 0xbe, 0xec, 0xd7, 0xaf, 0x3b, 0x0e, 0xba, 0x46, 0x3e, 0xab, 0x8c, 0xf7, 0x3d, 0x3e, 0xfc, 0xfc, 0xbd, 0xdd, 0xed, 0xf4, 0x3d, 0x69, 0x01, 0x0b, 0xbe, 0xfc, 0x7d, 0xa4, 0x3d, 0xb3, 0x63, 0x63, 0x3d, 0x3b, 0xa3, 0xa3, 0x3d, 0xd1, 0x22, 0xd4, 0xbd, 0x68, 0x1d, 0x02, 0x3d, 0x3f, 0x9f, 0x89, 0xbd, 0xce, 0xd4, 0x34, 0x3d, 0xa9, 0x82, 0x43, 0x3d, 0xbb, 0x2e, 0xfa, 0x3d, 0xcb, 0x26, 0x5f, 0x3e, 0x8d, 0xde, 0x28, 0x3e, 0x6d, 0xd6, 0x81, 0x3d, 0xbc, 0xa3, 0x99, 0x3e, 0x2d, 0x7f, 0xd5, 0xbd, 0x50, 0x9c, 0x11, 0x3e, 0xa7, 0xb5, 0x83, 0x3e, 0x1c, 0x81, 0xed, 0xbd, 0xc0, 0x81, 0x11, 0x3e, 0x36, 0xb2, 0x19, 0xbe, 0x60, 0x3a, 0x36, 0xbe, 0xff, 0xfb, 0x38, 0x3d, 0xfe, 0x33, 0x21, 0x3e, 0x97, 0xe9, 0x1d, 0x3d, 0xff, 0xac, 0xbe, 0xbd, 0x02, 0xfd, 0x9f, 0x3d, 0xef, 0xe4, 0x6a, 0x3d, 0x50, 0xeb, 0xd3, 0x3d, 0x49, 0x64, 0x46, 0x3e, 0x73, 0x90, 0x93, 0xbe, 0xe6, 0xd0, 0x97, 0xbc, 0x32, 0x26, 0x08, 0x3e, 0x9b, 0xac, 0x94, 0x3c, 0xc8, 0x32, 0x08, 0xbd, 0x2d, 0x9e, 0x01, 0x3d, 0xcf, 0x8d, 0x39, 0x3e, 0xee, 0x7e, 0x80, 0x3d, 0x15, 0x55, 0x86, 0xbe, 0xae, 0x29, 0x97, 0xbd, 0x05, 0xfd, 0x0d, 0xbe, 0x1c, 0x7b, 0xad, 0xbd, 0x7f, 0x3f, 0x41, 0x3e, 0x3b, 0x6c, 0x96, 0xbd, 0xa2, 0x6d, 0xde, 0xbd, 0x99, 0x03, 0x11, 0xbf, 0x1d, 0x7a, 0x8f, 0x3e, 0xe5, 0x80, 0x96, 0x3d, 0x77, 0x10, 0x4b, 0xbe, 0x6a, 0xa7, 0x78, 0x3e, 0xf4, 0x8d, 0x56, 0x3e, 0x9b, 0x67, 0x52, 0xbe, 0x14, 0x55, 0x56, 0xbd, 0x98, 0x85, 0x11, 0x3e, 0x22, 0x9c, 0x95, 0xbe, 0xfb, 0xe5, 0x2d, 0xbd, 0x91, 0x86, 0x63, 0x3d, 0xc6, 0xae, 0x35, 0x3d, 0x08, 0x61, 0x3d, 0x3e, 0x52, 0x56, 0x11, 0x3d, 0xb0, 0x73, 0x1b, 0xbe, 0x79, 0x2d, 0x53, 0xbd, 0xf1, 0xd0, 0xe3, 0x3d, 0x2d, 0xd9, 0x7c, 0xbe, 0x87, 0xd4, 0xdd, 0x3d, 0xce, 0x28, 0x06, 0x3e, 0xfc, 0x4d, 0xed, 0x3c, 0xc9, 0x3b, 0xc5, 0xbe, 0xd7, 0x30, 0xaa, 0x3d, 0x41, 0x1f, 0x3c, 0xbd, 0x9f, 0x51, 0x5e, 0x3d, 0x67, 0xbb, 0x72, 0xbe, 0x2c, 0xe0, 0x9a, 0xbe, 0x03, 0xf1, 0xd4, 0xbe, 0x8c, 0xf5, 0x01, 0x3e, 0x8d, 0xf4, 0xb4, 0x3d, 0x55, 0xaa, 0xc4, 0x3d, 0xf4, 0x3f, 0xa2, 0xbd, 0x07, 